{
    "_": 400021,
    "\u0120": 395989,
    "\u0109": 356098,
    "\u010a": 241507,
    ",": 83819,
    "(": 71730,
    ";": 70389,
    "->": 67844,
    "\u0120=": 52252,
    ");": 51934,
    ")": 43901,
    "\u010a\u010a": 38110,
    "\u0120(": 36895,
    "\u0120*": 35627,
    "}": 25404,
    "if": 24923,
    ".": 22817,
    "p": 21827,
    "s": 20115,
    "\u01200": 19250,
    "\u0120{": 18617,
    "struct": 16911,
    "d": 13384,
    "dev": 13226,
    "2": 12853,
    "\u0120&": 12850,
    "return": 12844,
    "t": 12624,
    ":": 12383,
    "c": 12265,
    "b": 12059,
    "{": 11940,
    "\",": 11827,
    "\u0120*/": 11732,
    "n": 11420,
    "i": 10983,
    "x": 10923,
    "[": 10625,
    "r": 10445,
    "\u0120==": 10068,
    "(\"": 9891,
    "w": 9655,
    "m": 9111,
    "(&": 8875,
    "v": 8674,
    "q": 8536,
    "1": 8260,
    "data": 8209,
    "g": 8186,
    "\u0120-": 8180,
    "\u0120if": 8055,
    "\u0120NULL": 7856,
    "\u0120\"": 7747,
    "\\": 7705,
    "int": 7688,
    "f": 7513,
    "/*": 7510,
    "static": 7492,
    "P": 7396,
    "\u0120int": 7387,
    "0": 7267,
    "\u0120the": 7126,
    "))": 7088,
    "sk": 7043,
    "l": 6996,
    "lock": 6749,
    "info": 6670,
    "F": 6487,
    "id": 6274,
    "k": 6116,
    "u": 5978,
    "\u0120%": 5767,
    "R": 5751,
    "S": 5378,
    "C": 5376,
    "\u0120i": 5300,
    "%": 5298,
    "\u0120to": 5208,
    "io": 5171,
    "\u0120+": 5171,
    "\u01201": 5121,
    "L": 4953,
    "h": 4940,
    "\u0120(!": 4910,
    "\u0120}": 4896,
    "\u0120p": 4892,
    "=": 4821,
    "size": 4815,
    "len": 4801,
    "E": 4773,
    "\u010d": 4770,
    "32": 4742,
    "#": 4643,
    "un": 4617,
    "\u0120/*": 4589,
    "buf": 4552,
    "Info": 4524,
    "4": 4458,
    "err": 4439,
    "D": 4434,
    "G": 4383,
    "]": 4332,
    "ret": 4251,
    "reg": 4239,
    "\u0120is": 4192,
    "3": 4178,
    "\u0120|": 4160,
    "));": 4133,
    "M": 4099,
    "addr": 4058,
    "\u0120gle": 4048,
    "K": 4036,
    "\u0120struct": 4035,
    "a": 4012,
    "\u0120s": 3999,
    "set": 3985,
    "__": 3979,
    "6": 3948,
    "IN": 3938,
    "\u0120__": 3925,
    "V": 3912,
    "void": 3910,
    "\u0120void": 3883,
    "\u0120<": 3829,
    "\u0120!=": 3818,
    "get": 3817,
    "I": 3768,
    "\u0120&&": 3687,
    "cp": 3591,
    "case": 3584,
    "\");": 3582,
    "T": 3572,
    "in": 3544,
    "to": 3498,
    "X": 3482,
    "port": 3463,
    "GL": 3462,
    "\u0120h": 3433,
    "dd": 3412,
    "),": 3392,
    "ip": 3387,
    "break": 3377,
    "TR": 3350,
    "\u0120return": 3343,
    "H": 3267,
    "EN": 3252,
    "OS": 3244,
    "\u0120else": 3212,
    "cmd": 3201,
    "oto": 3200,
    "8": 3174,
    "read": 3170,
    "\u0120ret": 3164,
    "flags": 3151,
    "\u0120in": 3139,
    "device": 3116,
    "cpu": 3109,
    "cs": 3092,
    "list": 3074,
    "tx": 3057,
    "ir": 3033,
    "16": 2991,
    "-": 2972,
    "unsigned": 2965,
    "page": 2964,
    "val": 2964,
    "cl": 2961,
    "W": 2957,
    "state": 2950,
    "pr": 2939,
    "ms": 2840,
    "gl": 2809,
    "init": 2800,
    "sp": 2791,
    "\u0120v": 2762,
    "req": 2754,
    "fs": 2733,
    "\u0120r": 2727,
    "ex": 2705,
    "ma": 2704,
    "et": 2686,
    "name": 2677,
    "is": 2675,
    "type": 2666,
    "rc": 2661,
    "us": 2652,
    "ER": 2638,
    "\u0120m": 2638,
    "LE": 2590,
    "ss": 2585,
    "\"": 2561,
    "unc": 2561,
    "B": 2548,
    "EXT": 2546,
    "\u0120c": 2539,
    "\u0120b": 2529,
    "free": 2528,
    "*": 2510,
    "();": 2499,
    "\u0120l": 2479,
    "ode": 2470,
    "\u0120||": 2465,
    "hw": 2440,
    "\u0120char": 2429,
    "\u0120for": 2414,
    "\u0120gl": 2412,
    "mode": 2381,
    "\u0120a": 2369,
    "ctrl": 2367,
    "ps": 2348,
    "for": 2327,
    "le": 2324,
    "ID": 2323,
    "\u0120long": 2319,
    "\u0120V": 2296,
    "\u0120sizeof": 2281,
    "cfg": 2251,
    "CT": 2246,
    "write": 2232,
    "mem": 2217,
    "VAL": 2215,
    "\u0120of": 2192,
    "func": 2171,
    "entry": 2170,
    "st": 2150,
    "buffer": 2129,
    "fd": 2125,
    "ptr": 2123,
    "N": 2117,
    "endif": 2106,
    "e": 2096,
    "\u0120n": 2092,
    "oc": 2091,
    "ED": 2088,
    "base": 2084,
    "res": 2081,
    "dr": 2078,
    "\u0120((": 2060,
    "\u0120ip": 2058,
    "U": 2053,
    "].": 2051,
    "US": 2032,
    "cap": 2027,
    "os": 2014,
    "sc": 2013,
    "map": 1998,
    "else": 1989,
    "ct": 1977,
    "PR": 1971,
    "pi": 1965,
    "ch": 1944,
    "\u0120u": 1930,
    "ARB": 1930,
    "\")": 1903,
    "\u0120we": 1900,
    "\u0120*)": 1898,
    "priv": 1891,
    "\u0120_": 1890,
    "64": 1884,
    "ACE": 1866,
    "ap": 1862,
    "\u0120d": 1836,
    "mut": 1836,
    "fb": 1831,
    "of": 1829,
    "\u0120)": 1822,
    "IO": 1811,
    "ST": 1808,
    "end": 1785,
    "AT": 1784,
    "def": 1773,
    "\u0120err": 1763,
    "IT": 1762,
    "\u0120sk": 1759,
    "cd": 1755,
    "NV": 1734,
    "Get": 1729,
    "ext": 1726,
    "file": 1726,
    "client": 1723,
    "Q": 1712,
    "status": 1688,
    "event": 1687,
    "conn": 1686,
    "\u0120>": 1685,
    "Y": 1683,
    "user": 1682,
    "];": 1668,
    "80": 1667,
    "\u0120and": 1664,
    "nd": 1660,
    "\u0120t": 1656,
    "IM": 1654,
    "\u0120out": 1654,
    "AL": 1652,
    "driver": 1634,
    "mp": 1631,
    "max": 1627,
    "\u0120FT": 1627,
    "up": 1613,
    "spin": 1610,
    "\u0120not": 1608,
    "\u0120flags": 1598,
    "num": 1597,
    "\u0120f": 1594,
    "z": 1584,
    "CON": 1583,
    "tc": 1580,
    "node": 1577,
    "5": 1572,
    "sm": 1571,
    "out": 1570,
    "key": 1563,
    "pt": 1561,
    "rx": 1540,
    "nt": 1538,
    "policy": 1536,
    "alloc": 1532,
    "msg": 1527,
    "uf": 1517,
    "\u0120size": 1515,
    "\u0120I": 1513,
    "A": 1511,
    "\u0120len": 1507,
    "str": 1507,
    "\u0120<<": 1506,
    "\u0120unsigned": 1500,
    "cr": 1494,
    "IS": 1486,
    "UN": 1475,
    "o": 1475,
    "config": 1469,
    "CH": 1462,
    "\u0120G": 1456,
    "211": 1456,
    "SIZE": 1449,
    "SP": 1446,
    "\u0120data": 1441,
    "],": 1436,
    "\u0120w": 1427,
    "\u0120\"%": 1427,
    "STAT": 1426,
    "Adapter": 1425,
    "EL": 1423,
    "md": 1422,
    "count": 1420,
    "\u01202": 1417,
    "db": 1414,
    "ock": 1412,
    "block": 1408,
    "\u0120L": 1402,
    "\u0120g": 1401,
    "\u0120be": 1400,
    "ad": 1395,
    "ud": 1392,
    "\u0120W": 1391,
    "430": 1389,
    "\u0120:": 1388,
    "DR": 1387,
    "REG": 1377,
    "em": 1377,
    "RE": 1376,
    "\u0120+=": 1364,
    "ERN": 1351,
    "\u0120'": 1348,
    "ep": 1348,
    "queue": 1345,
    "ERROR": 1332,
    "value": 1331,
    "Ext": 1327,
    "new": 1326,
    "zone": 1317,
    "bl": 1315,
    "O": 1314,
    "print": 1310,
    "chan": 1309,
    "\u0120S": 1309,
    "start": 1305,
    "pc": 1299,
    "mask": 1294,
    "ops": 1294,
    "\u0120GL": 1290,
    "\u0120k": 1286,
    "\u0120dr": 1286,
    "AD": 1280,
    "add": 1275,
    "\u0120!": 1268,
    "\u0120error": 1268,
    "\u0120get": 1266,
    "or": 1265,
    "host": 1265,
    "net": 1262,
    "EM": 1261,
    "\u0120);": 1261,
    "ET": 1257,
    "error": 1256,
    "\u0120cp": 1254,
    "put": 1249,
    "char": 1246,
    "attr": 1246,
    "ev": 1245,
    "++)": 1240,
    "tex": 1239,
    "CAP": 1235,
    "\u0120dev": 1232,
    "seq": 1231,
    "mm": 1230,
    "DE": 1228,
    "\u0120page": 1225,
    "ds": 1222,
    "offset": 1222,
    "op": 1219,
    "\u0120case": 1217,
    "fa": 1217,
    "buff": 1216,
    "ENT": 1211,
    "ON": 1207,
    "ci": 1204,
    "IF": 1200,
    "ensor": 1191,
    "pack": 1190,
    "const": 1188,
    "MS": 1176,
    "group": 1164,
    "table": 1157,
    "cache": 1156,
    "printf": 1152,
    "\u0120device": 1149,
    "opt": 1149,
    "IP": 1146,
    "debug": 1145,
    "sh": 1143,
    "send": 1141,
    "\u0120it": 1139,
    "fc": 1139,
    "gp": 1137,
    "as": 1131,
    "\u0120this": 1128,
    "EST": 1127,
    "HD": 1124,
    "((": 1119,
    "length": 1115,
    "remote": 1115,
    "bit": 1106,
    "\u0120break": 1096,
    "MAX": 1093,
    "arg": 1085,
    "register": 1083,
    "rs": 1083,
    "re": 1080,
    "OM": 1075,
    "\u0120P": 1073,
    "OC": 1065,
    "\u0120D": 1064,
    "\u0120const": 1064,
    "el": 1060,
    "sb": 1060,
    "params": 1056,
    "texture": 1056,
    "MA": 1051,
    "y": 1050,
    "ts": 1047,
    "no": 1047,
    "7": 1040,
    "j": 1033,
    "\u0120cpu": 1033,
    "ee": 1024,
    "VEL": 1019,
    "off": 1016,
    "\u0120//": 1015,
    "time": 1009,
    "ec": 1007,
    "\u0120x": 1005,
    "be": 1005,
    "\u0120info": 999,
    "\u0120e": 998,
    "chip": 998,
    "DB": 997,
    "mc": 997,
    "\u0120?": 995,
    "OP": 995,
    "INT": 988,
    "MAS": 987,
    "\u0120that": 984,
    "min": 983,
    "\u0120>=": 982,
    "\u0120ch": 982,
    "IC": 980,
    "\u0120M": 980,
    "/": 979,
    "work": 967,
    "9": 966,
    "py": 954,
    "ic": 953,
    "index": 953,
    "desc": 953,
    "en": 951,
    "next": 951,
    "conf": 950,
    "AM": 946,
    "sub": 941,
    "\u0120rc": 940,
    "\u0120~": 935,
    "timer": 932,
    "fn": 930,
    "915": 925,
    "property": 924,
    "\u01208": 923,
    "control": 923,
    "\u01204": 922,
    "TYPE": 922,
    "LAN": 921,
    "fre": 921,
    "\u0120status": 918,
    "ODE": 917,
    "\u0120set": 916,
    "vm": 914,
    "++;": 912,
    "READ": 910,
    "inter": 909,
    ",\"": 908,
    "INFO": 907,
    "AP": 906,
    "FAULT": 905,
    "CC": 903,
    "Context": 902,
    "AN": 899,
    "Log": 899,
    "()": 898,
    "enable": 896,
    "context": 896,
    "frame": 894,
    "cm": 894,
    "\u0120F": 891,
    "DEBUG": 888,
    "ag": 887,
    "ESS": 883,
    "\u0120new": 882,
    "WR": 880,
    "FP": 879,
    "bi": 877,
    "handle": 877,
    "si": 871,
    "PORT": 870,
    "uint": 869,
    "'t": 868,
    "\u0120on": 866,
    "ctl": 866,
    "CL": 864,
    "\u0120failed": 863,
    "\u0120offset": 863,
    "trans": 860,
    "]);": 856,
    "\u0120remote": 855,
    "\u0120buf": 852,
    "!": 852,
    "&": 851,
    "\u0120val": 851,
    "per": 849,
    "ask": 849,
    "ING": 845,
    "\"),": 841,
    "\u0120net": 841,
    "not": 838,
    "MODE": 836,
    "RES": 836,
    "ES": 835,
    "code": 832,
    "\u0120from": 826,
    "default": 824,
    "(*": 823,
    "back": 821,
    ")))": 819,
    "um": 818,
    "\u0120value": 817,
    "bus": 816,
    "Ver": 816,
    "ize": 815,
    "Is": 815,
    "dp": 814,
    "sl": 810,
    "ie": 809,
    "al": 800,
    "private": 798,
    "xt": 798,
    "\u0120reg": 797,
    "EX": 796,
    "tmp": 794,
    "reset": 793,
    "rt": 793,
    "PS": 792,
    "object": 791,
    "\u0120with": 790,
    "wait": 784,
    "\u0120read": 783,
    "wl": 777,
    "ABLE": 776,
    "pages": 776,
    "\u0120sock": 775,
    "\u0120>>": 774,
    "sys": 773,
    "\u0120/": 771,
    ")(": 770,
    "pipe": 768,
    "\u0120addr": 767,
    "\u0120as": 766,
    "log": 762,
    "ITE": 762,
    "at": 760,
    "fal": 760,
    "switch": 758,
    "ph": 757,
    "MOD": 756,
    "OR": 755,
    "oh": 753,
    "PC": 750,
    "sync": 749,
    "se": 748,
    "bos": 747,
    "var": 745,
    "\u0120are": 744,
    "EV": 744,
    "SUP": 742,
    "CS": 742,
    "path": 742,
    "request": 741,
    "GET": 740,
    "kt": 735,
    "rib": 734,
    "ab": 731,
    "obj": 731,
    "++": 729,
    "mt": 728,
    "ua": 728,
    "ctx": 727,
    "FS": 725,
    "connect": 725,
    "IX": 724,
    "ref": 722,
    "\u0120count": 722,
    "FLAG": 718,
    "sd": 718,
    "ent": 717,
    "check": 715,
    "stat": 714,
    "\u0120ext": 712,
    "Int": 708,
    "SH": 707,
    "comp": 704,
    "SD": 701,
    "\u0120mode": 700,
    "ll": 700,
    "SC": 700,
    "writ": 699,
    "mod": 697,
    "TX": 697,
    "pm": 695,
    "\u0120pr": 694,
    "copy": 694,
    "AR": 692,
    "iv": 692,
    "\u0120;": 690,
    "fp": 687,
    "DP": 687,
    "cur": 686,
    "ore": 686,
    "rel": 685,
    "END": 683,
    "AC": 681,
    "session": 680,
    "src": 678,
    "rest": 677,
    "update": 673,
    "OCK": 673,
    "com": 672,
    "result": 671,
    "param": 671,
    "assert": 671,
    "cf": 670,
    "UE": 669,
    "temp": 668,
    "Print": 668,
    "amp": 667,
    "BT": 666,
    "ACK": 664,
    "head": 664,
    "IL": 663,
    "ac": 663,
    "12": 661,
    "im": 660,
    "Un": 660,
    "thread": 660,
    "\u0120file": 657,
    "ension": 657,
    "10": 654,
    "\u0120If": 653,
    "audio": 653,
    "\u0120buffer": 652,
    "Sync": 652,
    "CF": 649,
    "bytes": 648,
    "\u0120end": 647,
    "ed": 647,
    "pg": 646,
    "target": 645,
    "SU": 645,
    "nr": 645,
    "\u0120B": 644,
    "ULE": 643,
    "NULL": 639,
    "LL": 637,
    "an": 637,
    "ist": 637,
    "pp": 634,
    "\u0120tmp": 632,
    "\u0120str": 632,
    "Z": 632,
    "SG": 632,
    "Supported": 631,
    "\u0120arg": 630,
    "\u0120do": 627,
    "MD": 624,
    "local": 624,
    "create": 623,
    "dis": 622,
    "pos": 622,
    "fl": 620,
    "pro": 619,
    "\u0120o": 619,
    "ATE": 618,
    "ONE": 616,
    "link": 612,
    "Att": 610,
    "Status": 609,
    "ld": 606,
    "np": 605,
    "\u0120mem": 605,
    "serial": 605,
    "ls": 604,
    "AND": 603,
    "class": 603,
    "ui": 603,
    "STATE": 603,
    "task": 603,
    "from": 602,
    "\u0120list": 602,
    "ring": 602,
    "OL": 600,
    "do": 599,
    "mac": 597,
    "apter": 596,
    "rate": 595,
    "\u0120packet": 595,
    "ok": 595,
    "ate": 594,
    "])": 594,
    "4000": 594,
    "\u0120or": 593,
    "SET": 593,
    "disable": 591,
    "scan": 590,
    "stream": 589,
    "hd": 587,
    "\u0120event": 587,
    "raw": 587,
    "\u0120j": 587,
    "DIS": 586,
    "\u0120false": 586,
    "\u0120id": 586,
    "\u0120opt": 585,
    "each": 584,
    "\u0120zone": 584,
    "\u0120can": 583,
    "\u012016": 582,
    "\u0120while": 578,
    "eh": 578,
    "\u0120CONFIG": 577,
    "\u01203": 577,
    "range": 575,
    "\u0120have": 575,
    "\u0120sp": 575,
    "FL": 574,
    "\u0120num": 573,
    "ERT": 573,
    "\u0120ie": 573,
    "\u0120(*": 572,
    "\u0120all": 571,
    "wr": 571,
    "OD": 570,
    "ver": 569,
    "continue": 568,
    "ix": 568,
    "\u0120up": 566,
    "\u0120SD": 566,
    "load": 563,
    "OUT": 563,
    "\u0120R": 563,
    "flag": 563,
    "so": 562,
    "RL": 560,
    "OK": 560,
    "old": 559,
    "par": 559,
    "bb": 559,
    "\u0120cmd": 558,
    "ALL": 557,
    "rom": 557,
    "while": 554,
    "valid": 553,
    "DS": 552,
    "BL": 552,
    "soc": 549,
    "sim": 549,
    "Error": 548,
    "\u0120<=": 546,
    "th": 544,
    "tp": 542,
    "\u0120so": 541,
    "AB": 540,
    "43": 540,
    "card": 539,
    "30": 537,
    "bc": 537,
    "enc": 537,
    "\u0120sc": 537,
    "xx": 536,
    "ing": 535,
    "able": 535,
    "\u0120will": 535,
    "ries": 535,
    "intel": 535,
    "\u0120md": 534,
    "\u0120at": 534,
    "stop": 534,
    "on": 533,
    "'": 532,
    "\u0120type": 530,
    "\u0120max": 529,
    "FA": 527,
    "\u0120target": 527,
    "PA": 526,
    "\u0120C": 525,
    "Tex": 524,
    "del": 523,
    "\u0120T": 523,
    "inst": 522,
    "\u0120node": 520,
    "args": 520,
    "save": 518,
    "likely": 518,
    "AS": 518,
    "\u0120uint": 517,
    "RC": 517,
    "dir": 516,
    "\u0120length": 515,
    "\u0120inline": 515,
    "ue": 515,
    "output": 515,
    "300": 515,
    "parent": 514,
    "om": 514,
    "LOG": 512,
    "ending": 512,
    "\u0120tcp": 512,
    "tty": 512,
    "--": 511,
    "State": 511,
    "ENS": 511,
    "wm": 510,
    "level": 510,
    "pe": 510,
    "\u0120[": 509,
    "BIT": 508,
    "current": 507,
    "\u0120ir": 507,
    "allowed": 505,
    "+": 504,
    "me": 504,
    "hs": 503,
    "exit": 503,
    "auth": 503,
    "tm": 501,
    "power": 500,
    "\u0120true": 500,
    "fr": 500,
    "ng": 500,
    "qu": 500,
    "//": 499,
    "\u0120start": 498,
    "MP": 496,
    "iform": 496,
    "\u0120no": 494,
    "00": 491,
    "channel": 491,
    "hash": 489,
    "ig": 488,
    "tt": 488,
    "\u0120TCP": 487,
    "release": 487,
    "self": 487,
    "all": 486,
    "\u0120pH": 486,
    "sec": 484,
    "\u0120an": 483,
    "Type": 483,
    "and": 482,
    "clock": 481,
    "pl": 481,
    "BUG": 481,
    "depth": 481,
    "cmp": 480,
    "ns": 479,
    "TC": 479,
    "ru": 478,
    "qual": 478,
    "DATA": 477,
    "TH": 477,
    "odes": 477,
    "ass": 476,
    "CR": 475,
    "timeout": 473,
    "exp": 473,
    "ack": 472,
    "sa": 472,
    "iff": 472,
    "RA": 471,
    "IG": 470,
    "\u0120address": 470,
    "od": 470,
    "LC": 469,
    "bh": 469,
    "ASS": 467,
    "\u0120next": 467,
    "PL": 467,
    "\u0120bit": 466,
    "proc": 466,
    "\u0120free": 466,
    "IR": 466,
    "\u0120We": 465,
    "ifier": 462,
    "EG": 462,
    "platform": 462,
    "TIME": 461,
    "OT": 460,
    "ION": 459,
    "BU": 458,
    "\u0120by": 457,
    "stats": 457,
    "cc": 457,
    "\u0120face": 457,
    "ment": 456,
    "GP": 453,
    "con": 453,
    "IFT": 453,
    "sw": 452,
    "\u0120key": 452,
    "FR": 452,
    "\u0120X": 452,
    "TO": 451,
    "pid": 451,
    "panel": 449,
    "Program": 448,
    "OB": 446,
    "ify": 446,
    "08": 444,
    "xxx": 444,
    "LIST": 442,
    "show": 442,
    "FC": 442,
    "tr": 442,
    "\u0120memory": 440,
    "\u0120self": 440,
    "11": 439,
    "open": 439,
    "Parameter": 439,
    "UP": 438,
    "\u0120order": 437,
    "IVE": 436,
    "fer": 436,
    "\u0120add": 435,
    "\u0120state": 435,
    "Gl": 435,
    "GE": 434,
    "yn": 434,
    "\u0120AR": 434,
    "active": 434,
    "ies": 434,
    "\u0120io": 433,
    "ub": 432,
    "ader": 432,
    "td": 430,
    "ob": 430,
    "NC": 429,
    "tim": 427,
    "rd": 427,
    "input": 427,
    "lan": 427,
    "line": 426,
    "\u0120km": 426,
    "enabled": 425,
    "\u0120H": 425,
    "test": 425,
    "\u0120request": 424,
    "OW": 423,
    "rupt": 423,
    "\u0120HAL": 423,
    "FT": 422,
    "hy": 421,
    "EC": 419,
    "89": 419,
    "\u0120driver": 418,
    "\u0120temp": 418,
    "bits": 418,
    "\u0120port": 416,
    "cb": 413,
    "\u0120E": 412,
    "nl": 412,
    "\u0120ex": 412,
    "\u0120q": 411,
    "clear": 410,
    "02": 410,
    "drm": 410,
    "du": 409,
    "\u0120The": 409,
    "USB": 409,
    "\u0120bytes": 409,
    "order": 408,
    "use": 408,
    "\u0120only": 407,
    "display": 407,
    "\u0120intel": 407,
    "PU": 405,
    "\u0120name": 404,
    "VE": 404,
    "NO": 403,
    "remove": 402,
    "trace": 401,
    "am": 401,
    "\u0120goto": 400,
    "sr": 398,
    "MIN": 397,
    "point": 397,
    "lli": 397,
    "FUN": 395,
    "\u0120**": 395,
    "\u0120write": 394,
    "\u0120This": 393,
    "ord": 392,
    "\u0120need": 391,
    "\u0120result": 391,
    "TP": 391,
    "\u0120pipe": 391,
    "ram": 390,
    "ORT": 389,
    "address": 389,
    "robe": 389,
    "GB": 388,
    "down": 386,
    "\u0120fail": 385,
    "filter": 384,
    "dc": 383,
    "ib": 383,
    "dump": 382,
    "ART": 382,
    "rypt": 382,
    "Object": 382,
    "OU": 381,
    "Dev": 381,
    "\u0120-=": 380,
    "width": 380,
    "wake": 380,
    "string": 379,
    "\u0120block": 379,
    "sta": 378,
    "\u0120PAGE": 378,
    "byte": 378,
    "ASE": 377,
    "Data": 377,
    "ost": 377,
    "\u0120current": 376,
    "\u0120cl": 375,
    "Set": 374,
    "VERSION": 374,
    "\u0120has": 374,
    "parse": 373,
    "\u0120check": 373,
    "handler": 373,
    "73": 373,
    "sem": 372,
    "FF": 371,
    "'s": 371,
    "ator": 371,
    "bo": 371,
    "sn": 370,
    "find": 369,
    "header": 369,
    "XX": 369,
    "core": 368,
    "\u0120defined": 367,
    "er": 367,
    "FINE": 366,
    "format": 365,
    "MC": 364,
    "\u0120CPU": 364,
    "section": 364,
    "prot": 363,
    "20": 363,
    "plane": 363,
    "\u0120fall": 362,
    "ers": 362,
    "png": 362,
    "*/": 361,
    "LED": 361,
    "FORM": 361,
    "SY": 361,
    "la": 361,
    "oder": 361,
    "\u0120when": 360,
    "ics": 360,
    "govern": 360,
    "ample": 360,
    "ind": 359,
    "mark": 358,
    "Add": 358,
    "FIG": 356,
    "RS": 356,
    "YS": 356,
    "\u0120old": 356,
    "bool": 355,
    "version": 355,
    "flush": 355,
    "VR": 354,
    "SL": 354,
    "\u0120N": 353,
    "PAR": 353,
    "SS": 352,
    "susp": 351,
    "Hal": 351,
    "co": 350,
    "Size": 350,
    "att": 350,
    "\u0120#": 350,
    "\u0120default": 349,
    "dat": 349,
    "destroy": 349,
    "area": 349,
    "\u0120first": 348,
    "SA": 348,
    "global": 348,
    "blocks": 348,
    "rec": 347,
    "cod": 347,
    "urb": 347,
    "\";": 346,
    "PM": 346,
    "Handle": 346,
    "last": 345,
    "de": 345,
    "limit": 345,
    "arch": 345,
    "NOT": 344,
    "\u0120(\"": 344,
    "J": 344,
    "isc": 344,
    "\u0120send": 343,
    "\u0120mask": 343,
    "ched": 343,
    "Array": 343,
    "Buffer": 343,
    "clean": 341,
    "ut": 341,
    "ins": 341,
    "usb": 340,
    "\u0120use": 339,
    "instance": 339,
    "UL": 339,
    "Re": 337,
    "VICE": 336,
    "\u0120MC": 336,
    "\u0120sm": 336,
    "extra": 336,
    "WA": 335,
    "ata": 335,
    "\u0120EXT": 335,
    "acl": 335,
    "close": 334,
    "Request": 334,
    "yd": 333,
    "ets": 332,
    "speed": 332,
    "ks": 332,
    "ess": 332,
    "sy": 331,
    "IND": 330,
    "PT": 329,
    "BC": 328,
    "pub": 328,
    "memory": 328,
    "ems": 328,
    "\u0120but": 327,
    "SE": 326,
    "\u0120code": 326,
    "Multi": 326,
    "\u0120z": 325,
    "uc": 324,
    "cam": 324,
    "\u0120me": 324,
    "\u01205": 323,
    "Block": 323,
    "prefix": 322,
    "\u0120time": 322,
    "TER": 321,
    "\u0120un": 321,
    "UB": 321,
    "\u0120EX": 321,
    "pixel": 320,
    "\u0120register": 320,
    "match": 320,
    "\u0120res": 320,
    "|": 320,
    "mb": 320,
    "row": 320,
    "IGH": 319,
    "MI": 319,
    "MT": 318,
    "done": 317,
    "\u0120mm": 317,
    "win": 317,
    "\u0120bool": 316,
    "\u0120config": 316,
    "UT": 316,
    "\u0120ad": 316,
    "SN": 315,
    "Co": 315,
    "left": 314,
    "fail": 314,
    "\u0120print": 314,
    "\u012010": 313,
    "di": 313,
    "IV": 312,
    "move": 312,
    "MM": 312,
    "zip": 312,
    "LS": 311,
    "ro": 310,
    "pre": 310,
    "\u0120SC": 310,
    "word": 310,
    "\u0120now": 310,
    "long": 310,
    "\u0120(_": 310,
    "\u0120should": 309,
    "ACT": 308,
    "\u0120pages": 308,
    "\u0120path": 308,
    "te": 307,
    "ar": 307,
    "\u0120command": 307,
    "ax": 307,
    "enum": 307,
    "\u0120req": 307,
    "by": 306,
    "\u0120one": 306,
    "DI": 306,
    "\u0120MAX": 306,
    "CD": 306,
    "setup": 305,
    "apping": 305,
    "xp": 305,
    "\u0120off": 304,
    "HEAD": 304,
    "ure": 304,
    "TS": 304,
    "\u0120copy": 304,
    "\u0120then": 303,
    "\u0120\",": 303,
    "\u0120O": 303,
    "Msg": 303,
    "List": 302,
    "empty": 301,
    "Aren": 301,
    "\u0120task": 301,
    "ge": 300,
    "\u0120input": 300,
    "atomic": 300,
    "\u0120();": 300,
    "\u0120here": 299,
    "nv": 299,
    "\u0120card": 299,
    "reply": 299,
    "mult": 298,
    "action": 298,
    "hed": 298,
    "\u0120msg": 298,
    "EP": 298,
    "sg": 298,
    "command": 297,
    "lim": 297,
    "\u0120exit": 296,
    "\u0120min": 296,
    "AMD": 296,
    "\u0120IS": 295,
    "ov": 295,
    "failed": 295,
    "po": 295,
    "sign": 294,
    "\u0120index": 294,
    "als": 294,
    "YN": 293,
    "OV": 293,
    "inet": 293,
    "\u0120IN": 293,
    "\u0120number": 292,
    "PH": 292,
    "\u0120pc": 291,
    "\u0120sys": 291,
    "BS": 290,
    "\u0120policy": 290,
    "attribute": 290,
    "\u0120already": 289,
    "cast": 289,
    "it": 289,
    "\u0120\\": 289,
    "')": 289,
    "change": 289,
    "())": 289,
    "NAME": 289,
    "\".": 289,
    "01": 288,
    "ft": 288,
    "\u0120IX": 287,
    "\u0120FALSE": 286,
    "OFF": 286,
    "\u0120archive": 286,
    "\u0120there": 285,
    "ync": 285,
    "ight": 285,
    "gre": 285,
    "ay": 284,
    "WARN": 284,
    "\u0120wait": 284,
    "onel": 284,
    "50": 284,
    "atic": 283,
    "\u0120VAL": 282,
    "draw": 282,
    "';": 281,
    "fix": 281,
    "\u0120cur": 281,
    "ff": 281,
    "gen": 280,
    "RAY": 280,
    "short": 280,
    "\u0120done": 280,
    "ens": 280,
    "\u0120sh": 280,
    "es": 279,
    "\u0120user": 279,
    "\u0120thread": 279,
    "\u0120rs": 279,
    "\u0120gp": 278,
    "bp": 278,
    "has": 278,
    "dec": 278,
    "PER": 277,
    "master": 277,
    "40": 277,
    "\u0120DRM": 277,
    "nc": 276,
    "flow": 276,
    "\u0120usb": 276,
    "IE": 276,
    "root": 276,
    "ai": 276,
    "\u0120(&": 276,
    "fo": 275,
    "\u0120IM": 275,
    "mr": 275,
    "\u0120enum": 274,
    "\u0120lease": 274,
    "NUM": 273,
    "Invalid": 273,
    "\u0120pci": 273,
    "\u0120sprint": 272,
    "\u0120USB": 272,
    "TE": 271,
    "tail": 271,
    "lease": 271,
    "bin": 270,
    "\u0120platform": 270,
    "slot": 270,
    "message": 270,
    "ans": 269,
    "\u0120channel": 269,
    "\u0120queue": 268,
    "first": 268,
    "\u0120lock": 268,
    "ANI": 268,
    "\u0120socket": 268,
    "bs": 268,
    "WM": 267,
    "\u0120last": 267,
    "batch": 267,
    "PLE": 267,
    "process": 266,
    "IB": 266,
    "callback": 265,
    "\u0120was": 264,
    ")\\": 264,
    "\u0120TRUE": 264,
    "store": 264,
    "\u012032": 264,
    "total": 264,
    "AME": 263,
    "DEV": 262,
    "\u0120IEEE": 262,
    "array": 261,
    "phy": 261,
    "INK": 261,
    "Filter": 261,
    "ree": 261,
    "\u0120cr": 261,
    "Key": 261,
    "ae": 261,
    "\u0120enable": 260,
    "\u0120U": 259,
    "SI": 258,
    "\u0120init": 258,
    "TF": 258,
    "36": 258,
    "\u0120base": 257,
    "\u01206": 257,
    "*)": 257,
    "push": 257,
    "ATION": 257,
    "Stats": 257,
    "UR": 257,
    "tun": 257,
    "ume": 256,
    "\u0120IP": 256,
    "arc": 255,
    "pletion": 255,
    "\u0120alloc": 255,
    "COM": 254,
    "\u012024": 254,
    "\u0120entry": 254,
    "Node": 253,
    "xff": 252,
    "\u0120slot": 252,
    "ocol": 252,
    "FE": 252,
    "archive": 252,
    "\u0120AD": 252,
    "\u0120update": 251,
    "\u0120seq": 251,
    "61": 251,
    "Er": 251,
    "\u0120PNG": 251,
    "mount": 251,
    "lu": 250,
    "interface": 250,
    "\u0120any": 249,
    "\u0120used": 248,
    "DOWN": 248,
    "ANG": 248,
    "Id": 248,
    "ert": 248,
    "86": 248,
    "settings": 248,
    "\u0120found": 247,
    "call": 247,
    "one": 247,
    "\u0120params": 246,
    "iter": 246,
    "Color": 246,
    "ul": 245,
    "ORE": 245,
    "module": 245,
    "CP": 245,
    "URE": 245,
    "ant": 245,
    "lv": 245,
    "\u0120context": 245,
    "lb": 245,
    "GEN": 245,
    "det": 245,
    "pd": 245,
    "\u0120pt": 244,
    "BUS": 244,
    "OF": 244,
    "\u0120ec": 244,
    "60": 243,
    "\u0120don": 243,
    "GRE": 243,
    "\u0120Set": 242,
    "used": 242,
    "\u0120A": 242,
    "mud": 242,
    "\u0120switch": 241,
    "ME": 241,
    "CPU": 241,
    "cal": 241,
    "main": 241,
    "\u0120TS": 241,
    "window": 240,
    "ew": 240,
    "\u0120scan": 239,
    "zero": 239,
    "Seg": 239,
    "SW": 238,
    "ND": 238,
    "\u0120st": 238,
    "14": 238,
    "xf": 238,
    "dm": 238,
    "gr": 237,
    "dh": 237,
    "look": 237,
    "\u0120level": 236,
    "Count": 236,
    "height": 235,
    "full": 235,
    "disc": 235,
    "program": 235,
    "AMP": 235,
    "TM": 235,
    "\u0120before": 234,
    "prev": 234,
    "ol": 234,
    "\u0120limit": 234,
    "\u0120IR": 234,
    "\u0120which": 233,
    "af": 233,
    "age": 233,
    "\u0120ps": 233,
    "\u0120ph": 233,
    "bind": 233,
    "MR": 233,
    "complete": 232,
    "Image": 232,
    "query": 231,
    "\u0120may": 231,
    "ry": 231,
    "\u0120pi": 231,
    "\u0120se": 230,
    "04": 230,
    "art": 230,
    "FD": 230,
    "mer": 229,
    "AST": 229,
    "are": 229,
    "\u0120work": 229,
    "ml": 229,
    "KEY": 228,
    "OLD": 228,
    "\u0120pm": 228,
    "region": 228,
    "options": 227,
    "OPER": 226,
    "cont": 225,
    "arm": 225,
    "PD": 225,
    "OSS": 225,
    "ace": 225,
    "number": 225,
    "\u0120GPIO": 225,
    "elf": 225,
    "dest": 224,
    "ror": 224,
    "\u0120tx": 224,
    "AY": 224,
    "13": 224,
    "mbol": 224,
    "682": 224,
    "\u0120(%": 223,
    "BY": 223,
    "gt": 223,
    "\u0120put": 223,
    "\u0120le": 223,
    "VIDEO": 222,
    "STR": 222,
    "\u0120fre": 222,
    "ah": 222,
    "ailed": 222,
    "BE": 221,
    "\u0120control": 221,
    "pa": 221,
    "\u0120after": 220,
    "OWER": 218,
    "\u0120++": 218,
    "red": 218,
    "LOCK": 218,
    "crypt": 218,
    "nel": 218,
    "\u0120y": 217,
    "\u0120make": 217,
    "abs": 217,
    "\u0120map": 216,
    "da": 216,
    "\u0120must": 216,
    "shared": 216,
    "warn": 215,
    "\u0120per": 215,
    "SO": 215,
    "kernel": 215,
    "\u0120op": 215,
    "sin": 214,
    "online": 214,
    "\u0120vm": 214,
    "\u0120$": 214,
    "supp": 213,
    "\u0120bits": 213,
    "cop": 213,
    "\u0120test": 213,
    "SR": 213,
    "misc": 213,
    "resource": 213,
    "\u0120find": 212,
    "FREE": 212,
    "gh": 212,
    ").": 212,
    "NECT": 212,
    "uart": 212,
    "ifi": 212,
    "inc": 211,
    "RR": 211,
    "low": 210,
    "sel": 210,
    "space": 210,
    "\u0120than": 209,
    "UM": 209,
    "camera": 209,
    "Index": 209,
    "BI": 209,
    "\u0120into": 208,
    "\u0120range": 208,
    "ied": 208,
    "ini": 208,
    "claim": 208,
    "71": 208,
    "\u0120frame": 207,
    "\u0120byte": 207,
    "\u0120src": 207,
    "VM": 207,
    "St": 207,
    "030": 207,
    "ide": 207,
    "CE": 206,
    "ANGE": 206,
    "\u0120mac": 206,
    "rw": 206,
    "dirty": 206,
    "qs": 206,
    "\u0120clock": 205,
    "\u0120ID": 205,
    "Prim": 205,
    "bt": 205,
    "abase": 205,
    "counter": 204,
    "vec": 204,
    "container": 204,
    "@": 203,
    "text": 203,
    "ux": 203,
    "NT": 202,
    "HE": 202,
    "OTO": 202,
    "ident": 202,
    "Event": 202,
    "mit": 201,
    "ANN": 201,
    "Free": 201,
    "leep": 201,
    "can": 201,
    "meta": 201,
    "iov": 200,
    "\u0120table": 200,
    "ENC": 200,
    "\u0120handle": 200,
    "Mode": 200,
    "CM": 200,
    "runtime": 200,
    "Texture": 200,
    "?": 199,
    "fil": 199,
    "\u0120call": 198,
    "pat": 198,
    "000": 198,
    "Write": 198,
    "domain": 198,
    "\u0120valid": 197,
    "\u0120process": 196,
    "float": 196,
    "board": 196,
    "\u0120oh": 196,
    "\u0120timeout": 195,
    "\u0120ac": 195,
    "\u0120,": 195,
    "pool": 195,
    "ot": 194,
    "NET": 194,
    "\u0120MSG": 194,
    "cookie": 194,
    "we": 194,
    "75": 194,
    "face": 194,
    "\u0120mud": 194,
    "pin": 193,
    "boot": 192,
    "BR": 192,
    "\u0120WM": 192,
    "\u0120Check": 192,
    "ign": 192,
    "\u0120plane": 192,
    "\\\\": 192,
    "IA": 191,
    "FILE": 191,
    "ATURE": 191,
    "this": 191,
    "ime": 191,
    "prop": 190,
    "delay": 189,
    "cn": 189,
    "0000": 189,
    "\u0120PCI": 189,
    "ast": 188,
    "TA": 188,
    "\u0120flag": 188,
    "iom": 188,
    "gra": 188,
    "ba": 188,
    "){": 188,
    "\u0120pos": 188,
    "bed": 188,
    "\u0120te": 187,
    "br": 187,
    "aud": 187,
    "events": 187,
    "\u0120host": 186,
    "ORY": 186,
    "ih": 186,
    "\u0120space": 185,
    "\u0120args": 185,
    "fill": 185,
    "tl": 185,
    "edi": 185,
    "\u0120ll": 185,
    "\u0120power": 184,
    "\u0120parse": 184,
    "ht": 184,
    "\u0120K": 184,
    "\u0120mc": 184,
    "\u0120serial": 184,
    "INE": 184,
    "};": 183,
    "ffff": 183,
    "family": 183,
    "ups": 183,
    "ACC": 182,
    "pn": 182,
    "\u0120reset": 181,
    "ness": 181,
    "\u0120client": 181,
    "tk": 181,
    "tree": 181,
    "cher": 181,
    "\u0120PACK": 181,
    "rb": 180,
    "ef": 180,
    "bd": 180,
    "annels": 180,
    "ounters": 180,
    "\u0120allocate": 179,
    "CB": 179,
    "USER": 179,
    "og": 179,
    "tab": 179,
    "fab": 179,
    "\u0120support": 178,
    "\u0120invalid": 178,
    "\u0120because": 178,
    "\u0120module": 178,
    ">": 178,
    "\u0120sn": 178,
    "\u0120stack": 178,
    "sets": 178,
    "\u0120TX": 178,
    "\u0120wr": 178,
    "Page": 178,
    "tv": 178,
    "ANS": 177,
    "ich": 177,
    "UTH": 176,
    "\u0120short": 176,
    "\u0120more": 176,
    "INC": 176,
    "hel": 176,
    "step": 176,
    "\u0120ME": 176,
    "mi": 176,
    "\u0120zip": 176,
    "LY": 175,
    "\u0120cf": 175,
    "\u0120ASS": 175,
    "Code": 174,
    "\u01207": 174,
    "II": 174,
    "SM": 174,
    "ty": 174,
    "\u0120back": 173,
    "reshold": 173,
    "<": 173,
    "\u0120us": 173,
    "Channel": 173,
    "VC": 173,
    "IST": 173,
    "\u0120match": 173,
    "field": 173,
    "Stream": 173,
    "ios": 172,
    "hex": 172,
    "\u0120stop": 172,
    "ECT": 172,
    "Window": 172,
    "objects": 172,
    "login": 172,
    "ation": 171,
    "OVER": 171,
    "tag": 171,
    "vert": 171,
    "Next": 171,
    "In": 171,
    "\u0120kernel": 171,
    "OUNT": 171,
    "owner": 171,
    "fif": 171,
    "omm": 171,
    "PLAY": 170,
    "FIR": 170,
    "\u0120non": 170,
    "socket": 170,
    "Class": 170,
    "gain": 170,
    "\u0120row": 170,
    "FIL": 169,
    "\u0120other": 169,
    "ULT": 169,
    "\u0120function": 169,
    "\u0120just": 169,
    "\u0120object": 169,
    "DIR": 169,
    "pol": 169,
    "hook": 168,
    "tick": 168,
    "Matrix": 168,
    "\u0120wifi": 168,
    "high": 167,
    "INTER": 167,
    "LOC": 167,
    "rem": 167,
    "ault": 167,
    "\u0120audio": 167,
    "\u0120rel": 167,
    "partial": 166,
    "video": 166,
    "FER": 166,
    "ly": 166,
    "act": 166,
    "\u0120sure": 166,
    "TRY": 166,
    "mg": 166,
    "\u0120Q": 166,
    "now": 166,
    "ety": 166,
    "IAL": 165,
    "03": 165,
    "\u01201000": 165,
    "\u0120MSM": 165,
    "isp": 165,
    "\u0120SM": 165,
    "\u0120DB": 165,
    "period": 164,
    "LINE": 164,
    "resp": 164,
    "stack": 164,
    "magic": 164,
    "\u0120output": 164,
    "elist": 164,
    "\u0120my": 164,
    "dl": 163,
    "vent": 163,
    "TEXT": 163,
    "\u0120SI": 163,
    "90": 163,
    "Py": 163,
    "ORD": 162,
    "\u0120our": 162,
    "String": 162,
    "ion": 162,
    "YP": 162,
    "\u0120metrics": 162,
    "\u0120ins": 162,
    "wd": 161,
    "IGN": 161,
    "\u0120PC": 161,
    "\u0120create": 161,
    "REF": 161,
    "UX": 161,
    ".\"": 161,
    "ITY": 161,
    "Cl": 161,
    "\u0120\"\\": 160,
    "WC": 160,
    "ors": 160,
    "Res": 160,
    "build": 160,
    "filename": 160,
    "\u0120link": 159,
    "ONG": 159,
    "\u0120debug": 159,
    "FOR": 159,
    "oint": 159,
    "sym": 159,
    "\u0120disable": 158,
    "bad": 158,
    "ATS": 158,
    "uid": 158,
    "15": 158,
    "\u0120change": 158,
    "(_": 158,
    "AUT": 158,
    "\u0120MEP": 158,
    "RGB": 157,
    "\u0120GET": 157,
    "\u0120continue": 157,
    "MO": 157,
    "\u0120proc": 157,
    "RO": 156,
    "ulator": 156,
    "prep": 156,
    "\u0120100": 156,
    "FFFF": 156,
    "env": 156,
    "ursor": 156,
    "\u0120GST": 156,
    "color": 155,
    "GR": 155,
    "ek": 155,
    "\u0120pointer": 155,
    "\u0120try": 155,
    "sum": 155,
    "volt": 155,
    "IENT": 155,
    "Sub": 155,
    "\u0120conn": 155,
    "\u0120high": 155,
    "ARGET": 155,
    "\u0120library": 155,
    "trl": 154,
    "\u0120enabled": 154,
    "\u0120supported": 154,
    "\u0120ts": 154,
    "\u0120compat": 154,
    "RD": 154,
    "ort": 154,
    "\u0120CF": 154,
    "internal": 154,
    "ression": 154,
    "\u0120called": 153,
    "comm": 153,
    "top": 153,
    "\u0120ST": 153,
    "ve": 153,
    "pace": 153,
    "ids": 153,
    "Frame": 153,
    "RET": 153,
    "transform": 153,
    "light": 152,
    "child": 152,
    "\u0120TR": 152,
    "\u0120dat": 152,
    "ended": 152,
    "ence": 152,
    "\u0120ring": 152,
    "EB": 151,
    "TY": 151,
    "\u0120union": 151,
    "MAL": 151,
    "go": 151,
    "API": 151,
    "led": 150,
    "24": 150,
    "pri": 150,
    "phys": 150,
    "\u0120SL": 150,
    "chain": 150,
    "\u0120line": 150,
    "SEC": 149,
    "\u0120ep": 149,
    "\u0120too": 149,
    "access": 149,
    "Len": 149,
    "encrypted": 149,
    "gpu": 149,
    "Query": 149,
    "gb": 148,
    "\u0120dh": 148,
    "DC": 148,
    "gets": 148,
    "\u0120message": 148,
    "item": 148,
    "ia": 148,
    "il": 148,
    "attach": 148,
    "ents": 148,
    "\u0120container": 147,
    "select": 147,
    "ong": 147,
    "scale": 147,
    "VALUE": 147,
    "AUD": 147,
    "VER": 147,
    "Ptr": 147,
    "Init": 147,
    "\u0120cs": 147,
    "lua": 147,
    "\u0120NF": 147,
    "\u0120fields": 146,
    "):": 146,
    "ADD": 146,
    "][": 146,
    "auto": 146,
    "DEF": 146,
    "tf": 146,
    "Card": 146,
    "NR": 145,
    "found": 145,
    "Face": 145,
    "\u0120bus": 144,
    "MAC": 144,
    "\u0120ptr": 144,
    "\u0120header": 144,
    "Power": 144,
    "\u0120been": 144,
    "ible": 144,
    "shut": 144,
    "token": 144,
    "asc": 144,
    "544": 144,
    "ESA": 144,
    "\u0120param": 143,
    "apps": 143,
    "est": 142,
    ")),": 142,
    "sid": 142,
    "\u0120core": 142,
    "av": 142,
    "tw": 142,
    "\u0120dst": 141,
    "AG": 141,
    "aps": 141,
    "\u0120class": 141,
    "\u0120could": 140,
    "IVER": 140,
    "\u0120PM": 140,
    "pass": 140,
    "Cmd": 140,
    "QU": 139,
    "\u0120ms": 139,
    "non": 139,
    "\u0120hash": 139,
    "Mem": 139,
    "\u0120parent": 139,
    "USH": 139,
    "lines": 139,
    "1000": 138,
    "BO": 138,
    "ULL": 138,
    "\u0120version": 138,
    "\u0120zero": 138,
    "\u0120ft": 138,
    "200": 138,
    "\u0120cache": 138,
    "\u0120RX": 138,
    "\u0120AT": 138,
    "\u0120same": 137,
    "\u0120format": 137,
    "IME": 137,
    "support": 137,
    "locked": 137,
    "poll": 137,
    "Device": 137,
    "17": 137,
    "\u0120));": 137,
    "super": 137,
    "\u0120daemon": 137,
    "\"))": 136,
    "WARNING": 136,
    "VD": 136,
    "BD": 136,
    "ocate": 136,
    "\u0120chip": 136,
    "\u0120MP": 136,
    "uster": 136,
    "\u0120interrupt": 136,
    "\u0120extent": 136,
    "\u0120Py": 136,
    "\u0120Invalid": 135,
    "vl": 135,
    "supported": 135,
    "iw": 135,
    "\u0120blocks": 135,
    "We": 135,
    "values": 135,
    "\u0120does": 134,
    "rss": 134,
    "que": 134,
    "kb": 134,
    "TT": 134,
    "\u0120reclaim": 134,
    "over": 134,
    "88": 134,
    "rm": 134,
    "JECT": 134,
    "\u0120ib": 134,
    "\u0120ven": 134,
    "\u0120IC": 133,
    ")\",": 133,
    "\u0120callback": 133,
    "\u0120session": 133,
    "ips": 133,
    "how": 133,
    "DA": 132,
    "ca": 132,
    "ect": 132,
    "aut": 132,
    "trial": 132,
    "wn": 132,
    "ary": 132,
    "pper": 132,
    "\u0120Get": 131,
    "reason": 131,
    "RT": 131,
    "\u0120empty": 131,
    "Timer": 131,
    "\u0120stream": 131,
    "ce": 131,
    "\u0120total": 130,
    "ne": 130,
    "Offset": 130,
    "\u0120some": 130,
    "\u0120trunc": 130,
    "azz": 130,
    "ulk": 130,
    "\u0120values": 129,
    "right": 129,
    "ALSE": 129,
    "\u0120clear": 129,
    "anced": 129,
    "21": 128,
    "resh": 128,
    "UMP": 128,
    "SK": 128,
    "div": 128,
    "Value": 128,
    "PI": 128,
    "rans": 128,
    "():": 128,
    "Bind": 128,
    "\u0120BC": 127,
    "ive": 127,
    "equal": 127,
    "\u0120->": 127,
    "initialized": 127,
    "\u0120wip": 127,
    "\u0120NL": 127,
    "ued": 127,
    "ipher": 127,
    "lane": 126,
    "insert": 126,
    "\u0120ER": 126,
    "fun": 126,
    "All": 126,
    "Server": 126,
    "Profile": 126,
    "NOR": 126,
    "normal": 126,
    "\u0120FILE": 126,
    "REAM": 126,
    "\u012064": 126,
    "ren": 126,
    "integer": 126,
    "image": 126,
    "SB": 126,
    "\u0120MD": 126,
    "NL": 126,
    "\u0120tick": 125,
    "FFER": 125,
    "DEC": 125,
    "report": 125,
    "sv": 125,
    "gment": 125,
    "ino": 125,
    "AH": 125,
    "Length": 125,
    "GI": 125,
    "LOAD": 125,
    "\u0120NR": 125,
    "POST": 125,
    "MAP": 124,
    "\u0120available": 124,
    "OST": 124,
    "\u0120since": 124,
    "\u0120PV": 124,
    "fw": 124,
    "Tx": 124,
    "actual": 124,
    "flash": 124,
    "view": 124,
    "sect": 124,
    "\u0120PH": 124,
    "sense": 124,
    "Wra": 124,
    "pay": 123,
    "post": 123,
    "\u0120MAC": 123,
    "\u0120BT": 123,
    "\u0120load": 123,
    "\u0120local": 123,
    "AF": 123,
    "GS": 123,
    "\u0120For": 123,
    "\u0120extra": 123,
    "IZE": 123,
    "]),": 123,
    "UA": 123,
    "<<": 123,
    "cil": 123,
    "\u0120panel": 122,
    "\u0120cleanup": 122,
    "Read": 122,
    "OO": 122,
    "\u0120VM": 122,
    "\u0120log": 122,
    "ail": 122,
    "esp": 122,
    "amed": 122,
    "disabled": 121,
    "transfer": 121,
    "\u0120needed": 121,
    "\u0120sub": 121,
    "\u0120setup": 121,
    "\u0120copied": 121,
    "gs": 121,
    "pu": 121,
    "\u0120SY": 121,
    "AGE": 121,
    "Pos": 121,
    "\u0120arch": 121,
    "\u0120si": 121,
    "\u0120ide": 121,
    "Long": 121,
    "\u0120depth": 121,
    "\u0120DP": 121,
    "\u0120sun": 121,
    "\u0120MB": 121,
    "\u0120sent": 120,
    "\u0120display": 120,
    "\u0120ev": 120,
    "ere": 120,
    "\u0120private": 120,
    "my": 120,
    "\u0120OM": 120,
    "\u0120eh": 120,
    "features": 119,
    "ose": 119,
    "\u0120show": 119,
    "Base": 119,
    "ink": 119,
    "FB": 119,
    "vid": 119,
    "slave": 119,
    "lev": 119,
    "VO": 118,
    "try": 118,
    "\u0120In": 118,
    "ric": 118,
    "lo": 117,
    "ACH": 117,
    "PO": 117,
    "ATCH": 117,
    "single": 117,
    "station": 117,
    "...": 117,
    "Host": 117,
    "Param": 117,
    "CO": 117,
    "dule": 117,
    "ust": 117,
    "Po": 117,
    "Map": 117,
    "vt": 116,
    "ite": 116,
    "98": 116,
    "lat": 116,
    "ancel": 116,
    "Ex": 116,
    "sleep": 116,
    "estamp": 116,
    "VID": 116,
    "\u0120aud": 116,
    "\u0120still": 115,
    "\u0120All": 115,
    "apped": 115,
    "Local": 115,
    "AIN": 115,
    "44": 115,
    "\u0120using": 114,
    "dt": 114,
    "COMPLE": 114,
    "pointer": 114,
    "\u0120BIT": 114,
    "Name": 114,
    "Gen": 114,
    "\u0120ur": 114,
    "amples": 114,
    "greg": 114,
    "force": 113,
    "\u0120sync": 113,
    "23": 113,
    "\u012012": 113,
    "\u0120No": 113,
    "opy": 113,
    "ute": 113,
    "'re": 113,
    "\u0120.": 113,
    "\u0120re": 113,
    "KE": 113,
    "elta": 113,
    "sche": 113,
    "ARD": 113,
    "cv": 113,
    "oid": 113,
    "Instance": 113,
    "Draw": 113,
    "\u0120pin": 112,
    "ANK": 112,
    "errors": 112,
    "ency": 112,
    "shift": 112,
    "Ro": 112,
    "Scan": 112,
    "Config": 112,
    "\u0120fault": 112,
    "\u0120head": 112,
    "model": 112,
    "\u0120ic": 112,
    "\u0120resource": 112,
    "olean": 112,
    "sf": 112,
    "100": 111,
    "\u0120tag": 111,
    "LIN": 111,
    "CLOSE": 111,
    "\u0120them": 111,
    "ged": 111,
    "\u0120internal": 111,
    "ires": 111,
    "\u0120symbol": 111,
    "\u0120right": 110,
    "\u0120complete": 110,
    "\u0120prev": 110,
    "DT": 110,
    "PASS": 110,
    "option": 110,
    "multi": 110,
    "STEP": 110,
    "MB": 110,
    "\u0120reply": 110,
    "pad": 110,
    "PG": 109,
    "HT": 109,
    "RY": 109,
    "final": 109,
    "band": 109,
    "FW": 109,
    "Per": 109,
    "\u0120Initial": 109,
    "ck": 109,
    "quick": 109,
    "sample": 109,
    "profile": 109,
    "IGHT": 108,
    "ias": 108,
    "\u0120rate": 108,
    "\u0120AF": 108,
    "\u0120spin": 108,
    "connection": 108,
    "ach": 108,
    "method": 108,
    "\u0120left": 107,
    "OUND": 107,
    "any": 107,
    "safe": 107,
    "Delete": 107,
    "\u0120doesn": 107,
    "Enable": 107,
    "Frag": 107,
    "alpha": 107,
    "OURCE": 107,
    "DES": 107,
    "he": 106,
    "\u0120sl": 106,
    "irect": 106,
    "\u0120failure": 106,
    "\u0120SP": 106,
    "resources": 106,
    "\u0120tw": 106,
    "ser": 106,
    "\u0120Failed": 105,
    "CLE": 105,
    "\u0120through": 105,
    "End": 105,
    "source": 105,
    "label": 105,
    "\u0120HDD": 105,
    "monitor": 105,
    "loop": 105,
    "\u0120pending": 105,
    "mas": 105,
    "\u0120mp": 105,
    "\u0120desc": 105,
    "\u0120`": 105,
    "Path": 105,
    "plugin": 105,
    "fx": 104,
    "\u0120setting": 104,
    "\u0120returned": 104,
    "tu": 104,
    "\u0120INT": 104,
    "initial": 104,
    "\u0120Z": 104,
    "GO": 104,
    "NI": 104,
    "ition": 104,
    "fg": 104,
    "\u0120hal": 104,
    "\u0120LL": 104,
    "lem": 104,
    "direction": 104,
    "early": 104,
    "\u0120el": 104,
    "\u0120di": 104,
    "usters": 104,
    "ogi": 104,
    "blank": 103,
    "\u0120low": 103,
    "\u0120Read": 103,
    "ICK": 103,
    "PF": 103,
    "\u0120being": 103,
    "UST": 103,
    "ached": 103,
    "\u0120allocated": 103,
    "Create": 103,
    "ams": 103,
    "Current": 103,
    "hard": 103,
    "oper": 103,
    "\u0120fix": 103,
    "uu": 103,
    "\u0120sig": 103,
    "400": 103,
    "Def": 103,
    "ior": 103,
    "lp": 102,
    "ard": 102,
    "CHECK": 102,
    "only": 102,
    "ERA": 102,
    "\u0120response": 102,
    "\u0120option": 102,
    "pop": 102,
    "\u0120nod": 102,
    "CEPT": 102,
    "\u0120printf": 102,
    "ations": 102,
    "diff": 102,
    "keys": 102,
    "asa": 102,
    "KNOWN": 101,
    "\u0120bu": 101,
    "loc": 101,
    "ification": 101,
    "function": 101,
    "\u0120they": 101,
    "late": 101,
    "\u0120UL": 101,
    "Comp": 101,
    "mic": 101,
    "\u0120pg": 101,
    "\u0120slab": 101,
    "\u0120options": 101,
    "comb": 101,
    "GT": 101,
    "oll": 101,
    "Transform": 101,
    "AI": 101,
    "lower": 101,
    "\u0120var": 101,
    "\u0120stub": 101,
    "\u0120CG": 101,
    "\u0120disabled": 100,
    "\u0120active": 100,
    "li": 100,
    "\u0120ref": 100,
    "setting": 100,
    "\u0120cannot": 100,
    "\u0120access": 100,
    "\u0120timer": 100,
    "PE": 100,
    "anned": 100,
    "\u0120might": 100,
    "erve": 100,
    "rates": 100,
    "\u0120enc": 100,
    ">>": 100,
    "pler": 100,
    "ount": 99,
    "\u0120also": 99,
    "TL": 99,
    "hz": 99,
    "Copy": 99,
    "\u0120always": 99,
    "OG": 99,
    "lake": 99,
    "\u0120width": 98,
    "\u0120pixel": 98,
    "fast": 98,
    "UG": 98,
    "\u0120allocation": 98,
    "New": 98,
    "ype": 98,
    "');": 98,
    "825": 98,
    "after": 98,
    "response": 98,
    "mat": 98,
    "\u0120com": 98,
    "\u0120AU": 98,
    "wx": 98,
    "\u0120until": 97,
    "MED": 97,
    "No": 97,
    "enter": 97,
    "\u0120DIS": 97,
    "delete": 97,
    "gem": 97,
    "\u0120Make": 97,
    "En": 97,
    "EMP": 97,
    "\u0120It": 97,
    "==": 97,
    "\u0120static": 97,
    "22": 97,
    "spec": 97,
    "acc": 97,
    "HA": 97,
    "planes": 97,
    "\u0120pid": 97,
    "icks": 97,
    "posted": 97,
    "Video": 97,
    "\u0120keep": 96,
    "\u0120mod": 96,
    "ou": 96,
    "\u0120remove": 96,
    "POL": 96,
    "Sp": 96,
    "rier": 96,
    "Callback": 96,
    "ating": 96,
    "\u0120service": 96,
    "ICE": 96,
    "names": 96,
    "\u0120CM": 96,
    "sten": 96,
    "\u0120PR": 95,
    "\u0120group": 95,
    "WORK": 95,
    "SER": 95,
    "ove": 95,
    "ables": 95,
    "\u0120possible": 95,
    "ECTION": 95,
    "\u0120server": 95,
    "OOK": 95,
    "Ch": 95,
    "ready": 95,
    "changed": 95,
    "45": 95,
    "\u0120PO": 95,
    "ATA": 95,
    "SIGN": 95,
    "ire": 95,
    "HS": 94,
    "dog": 94,
    "\u0120its": 94,
    "MAG": 94,
    "PN": 94,
    "erved": 94,
    "\u0120caller": 94,
    "screen": 94,
    "Str": 94,
    "\u0120};": 94,
    "QUEST": 94,
    "());": 94,
    "std": 94,
    "URN": 94,
    "PUT": 94,
    "\u0120CR": 94,
    "ream": 94,
    "ile": 94,
    "drive": 94,
    "\u0120full": 93,
    "ERS": 93,
    "\u0120string": 93,
    "lc": 93,
    "\u0120drop": 93,
    "frames": 93,
    "present": 93,
    "Address": 93,
    "\u0120SH": 93,
    "commit": 93,
    "192": 93,
    "files": 93,
    "\u0120db": 93,
    "ti": 93,
    "lt": 92,
    ":\\": 92,
    "TERN": 92,
    "\u0120handler": 92,
    "ocated": 92,
    "ENA": 92,
    "Time": 92,
    "\u0120FL": 92,
    "\u0120down": 92,
    "su": 92,
    "(),": 92,
    "der": 92,
    "CI": 92,
    "achi": 92,
    "\u01209": 91,
    "\u0120NOT": 91,
    "\u0120auth": 91,
    "\u0120filter": 91,
    "define": 91,
    "\u0120running": 91,
    "VS": 91,
    "\u0120system": 91,
    "\u0120loop": 91,
    "js": 91,
    "\u0120boot": 91,
    "000000": 91,
    "PRE": 91,
    "bar": 91,
    "\u0120region": 91,
    "\u0120win": 91,
    "rob": 91,
    "sch": 91,
    "\u0120bad": 90,
    "common": 90,
    "\u0120interface": 90,
    "hot": 90,
    "\u0120connection": 90,
    "ATOR": 90,
    "38": 90,
    "\u0120trace": 90,
    "annot": 90,
    "BACK": 90,
    "\u0120nodes": 90,
    "orig": 90,
    "ots": 90,
    "emon": 90,
    "\u0120dw": 90,
    "watch": 89,
    "TD": 89,
    "eth": 89,
    "begin": 89,
    "blue": 89,
    "\u0120go": 89,
    "\u0120PS": 89,
    "ookie": 89,
    "au": 89,
    "\u0120source": 89,
    "BLE": 89,
    "ASC": 89,
    "mon": 89,
    "\u0120--": 89,
    "\u0120IO": 89,
    "42": 89,
    "Mc": 89,
    "POS": 89,
    "unk": 89,
    "gu": 89,
    "\u0120EN": 89,
    "hr": 89,
    "\u0120OW": 89,
    "LO": 88,
    "less": 88,
    "Sh": 88,
    "TAG": 88,
    "\u0120channels": 88,
    "\u0120want": 88,
    "rev": 88,
    "\u0120again": 88,
    "MON": 88,
    "\u0120global": 88,
    "\u0120open": 88,
    "shr": 88,
    "acked": 88,
    "74": 88,
    "ASH": 88,
    "[]": 88,
    "ociation": 88,
    "\u0120Clear": 88,
    "\u0120keys": 88,
    "part": 88,
    "\u0120super": 88,
    "offs": 88,
    "Resource": 88,
    "bridge": 88,
    "union": 88,
    "Remote": 88,
    "ynamic": 87,
    "ash": 87,
    "aligned": 87,
    "\u0120over": 87,
    "\u0120regulator": 87,
    "ossible": 87,
    "\u0120fill": 87,
    "Bl": 87,
    "NE": 87,
    "Pro": 87,
    "WE": 87,
    "\u0120would": 87,
    "',": 87,
    "\u0120delta": 87,
    "Flag": 87,
    "ache": 87,
    "EW": 87,
    "rows": 87,
    "ei": 87,
    "Off": 86,
    "\u0120property": 86,
    "ignment": 86,
    "df": 86,
    "atal": 86,
    "FG": 86,
    "\u0120^": 86,
    "iph": 86,
    "\u0120CH": 86,
    "\u0120flow": 86,
    "\u0120DR": 86,
    "ANT": 86,
    "Load": 86,
    "\u0120yet": 86,
    "\u0120wake": 86,
    "service": 86,
    "\u0120sr": 86,
    "\u0120sensor": 86,
    "split": 86,
    "pec": 86,
    "processor": 86,
    "hp": 86,
    "erer": 86,
    "olution": 86,
    "tg": 86,
    "UTE": 86,
    "\u0120HH": 86,
    "tered": 86,
    "\u0120avoid": 85,
    "PK": 85,
    "\u0120what": 85,
    "Mac": 85,
    "soft": 85,
    "~": 85,
    "element": 85,
    "gly": 85,
    "ech": 85,
    "\u0120skip": 84,
    "DF": 84,
    "dimension": 84,
    "bright": 84,
    "bu": 84,
    "ity": 84,
    "(-": 84,
    "KS": 84,
    "\u0120bo": 84,
    "ones": 84,
    "\u0120point": 84,
    "Start": 84,
    "Clear": 84,
    "water": 84,
    "REL": 84,
    "\u0120SN": 84,
    "OTE": 84,
    "\u0120cursor": 84,
    "dom": 84,
    "ctors": 84,
    "\u0120OUT": 84,
    "Disable": 83,
    "\u0120tc": 83,
    "NG": 83,
    "null": 83,
    "\u0120atomic": 83,
    "plug": 83,
    "green": 83,
    "Op": 83,
    "18": 83,
    "fin": 83,
    "Mult": 83,
    "locks": 83,
    "factor": 83,
    "Second": 83,
    "\u0120soc": 82,
    "peer": 82,
    "APP": 82,
    "score": 82,
    "kill": 82,
    "\u0120fl": 82,
    "ANCE": 82,
    "\u0120about": 82,
    "\u0120run": 82,
    "igr": 82,
    "\u0120latency": 82,
    "route": 82,
    "share": 82,
    "arr": 82,
    "xc": 82,
    "Format": 82,
    "BG": 82,
    "\u0120changed": 81,
    "HER": 81,
    "bound": 81,
    "ARY": 81,
    "\u0120where": 81,
    "\u0120tr": 81,
    "ase": 81,
    "\u0120FB": 81,
    "ENCY": 81,
    "CLASS": 81,
    "\u0120means": 81,
    "':": 81,
    "\u0120POWER": 81,
    "\u0120signal": 81,
    "\u0120sched": 81,
    "\u0120each": 81,
    "\u0120without": 81,
    "\u0120entries": 81,
    "ii": 81,
    "ryption": 81,
    "warning": 81,
    "search": 81,
    "\u0120al": 81,
    "job": 81,
    "style": 81,
    "dx": 80,
    "virtual": 80,
    "ump": 80,
    "\u0120action": 80,
    "TABLE": 80,
    "hi": 80,
    "server": 80,
    "\u0120got": 80,
    "\u012020": 80,
    "separ": 80,
    "\u0120know": 80,
    "system": 80,
    "ain": 80,
    "\u0120FIX": 80,
    "Table": 80,
    "spread": 80,
    "aca": 80,
    "Normal": 80,
    "sis": 80,
    "\u0120adren": 80,
    "auc": 80,
    "feature": 79,
    "\u0120required": 79,
    "the": 79,
    "Queue": 79,
    "ym": 79,
    "\u0120msec": 79,
    "ferred": 79,
    "Target": 79,
    "acon": 79,
    "AK": 79,
    "progress": 79,
    "claimed": 79,
    "peed": 79,
    "states": 79,
    "\u0120attribute": 79,
    "\u0120sym": 79,
    "goal": 79,
    "ANE": 79,
    "LV": 79,
    "\u0120mount": 79,
    "media": 79,
    "atile": 79,
    "dn": 79,
    "iner": 79,
    "body": 79,
    "password": 79,
    "\u0120Error": 78,
    "LP": 78,
    "\u0120bl": 78,
    "LR": 78,
    "osh": 78,
    "\u0120protocol": 78,
    "oul": 78,
    "\u0120dest": 78,
    "CV": 78,
    "LA": 78,
    "NA": 78,
    "\u0120save": 78,
    "\u0120sleep": 78,
    "Par": 78,
    "96": 78,
    "api": 78,
    "SELECT": 78,
    "lements": 78,
    "rr": 78,
    "nat": 78,
    "render": 78,
    "ressed": 78,
    "rozen": 78,
    "\u0120modem": 78,
    "hm": 78,
    "layer": 78,
    "vc": 77,
    "\u0120needs": 77,
    "\u0120speed": 77,
    "\u0120div": 77,
    "\u0120th": 77,
    "\u0120argument": 77,
    "\u0120structure": 77,
    "\u0120single": 77,
    "km": 77,
    "dep": 77,
    "oding": 77,
    "psc": 77,
    "asks": 77,
    "ulate": 77,
    "\u0120instruction": 77,
    "ali": 77,
    "After": 77,
    "kw": 77,
    "264": 77,
    "\u0120video": 76,
    "\u012011": 76,
    "DH": 76,
    "\u0120reason": 76,
    "\u0120flush": 76,
    "\u0120see": 76,
    "Unknown": 76,
    "\u0120Ignore": 76,
    "\u0120even": 76,
    "ated": 76,
    "\u0120PF": 76,
    "\u0120field": 76,
    "Connection": 76,
    "ra": 76,
    "expected": 76,
    "Could": 76,
    "ization": 76,
    "\u0120threads": 76,
    "igrate": 76,
    "\u0120water": 76,
    "run": 76,
    "endor": 76,
    "aved": 76,
    "USE": 76,
    "packed": 76,
    "perm": 76,
    "WS": 76,
    "inity": 76,
    "\u0120elevator": 76,
    "cci": 76,
    "Conn": 76,
    "&&": 75,
    "align": 75,
    "\u0120specified": 75,
    "\u0120Disable": 75,
    "\u0120Do": 75,
    "\u0120enough": 75,
    "keep": 75,
    "]:": 75,
    "irm": 75,
    "gd": 75,
    "ware": 75,
    "\u0120received": 75,
    "\u0120mult": 75,
    "install": 75,
    "\u0120two": 75,
    "specific": 75,
    "atch": 75,
    "ARCH": 75,
    "Render": 75,
    "ur": 75,
    "submit": 75,
    "\u0120DS": 75,
    "\u0120ov": 75,
    "\u0120da": 75,
    "bf": 75,
    "\u0120esp": 75,
    "\\\"": 74,
    "ush": 74,
    "AV": 74,
    "Ref": 74,
    "Progress": 74,
    "Neigh": 74,
    "\u0120either": 74,
    "File": 74,
    "\u0120buffers": 74,
    "iss": 74,
    "\u0120split": 74,
    "nm": 74,
    "ains": 74,
    "\u0120times": 74,
    "\u0120assert": 74,
    "machine": 74,
    "ayed": 74,
    ":\"": 74,
    "ument": 74,
    "signed": 74,
    "alt": 74,
    "mouse": 74,
    "rect": 73,
    "\u0120att": 73,
    "tons": 73,
    "cond": 73,
    "EED": 73,
    "\u0120256": 73,
    "\u0120never": 73,
    "Tr": 73,
    "\u0120MEM": 73,
    "\u0120batch": 73,
    "\u0120how": 73,
    "priority": 73,
    "balance": 73,
    "\u0120kcal": 73,
    "onent": 73,
    "\u0120SO": 73,
    "\u0120section": 73,
    "urn": 73,
    "ow": 73,
    "pic": 73,
    "location": 73,
    "acement": 73,
    "ctr": 73,
    "Lock": 73,
    "vp": 73,
    "aff": 73,
    "storage": 73,
    "sit": 73,
    "col": 72,
    "ESH": 72,
    "ars": 72,
    "ored": 72,
    "uv": 72,
    "HP": 72,
    "\u0120Note": 72,
    "\u0120magic": 72,
    "\u0120packets": 72,
    "\u0120store": 72,
    "47": 72,
    "controller": 72,
    "term": 72,
    "\u0120LV": 72,
    "\u0120EP": 72,
    "GER": 71,
    "spl": 71,
    "\u0120DC": 71,
    "\u0120Enable": 71,
    "\u0120raw": 71,
    "Not": 71,
    "Reg": 71,
    "\u0120ETH": 71,
    "ESSION": 71,
    "\u0120resume": 71,
    "\u0120lower": 71,
    "\u0120another": 71,
    "\u0120way": 71,
    "wall": 71,
    "ARK": 71,
    "Range": 71,
    "\u0120Rx": 71,
    "called": 71,
    "ven": 71,
    "need": 71,
    "Thread": 71,
    "vd": 71,
    "STRUCT": 71,
    "Arg": 71,
    "DIV": 71,
    "ILY": 71,
    "\u0120cd": 71,
    "\u0120association": 71,
    "Pal": 71,
    "\u0120null": 70,
    "\u0120allowed": 70,
    "NS": 70,
    "\u0120pass": 70,
    "dot": 70,
    "ri": 70,
    "\u0120IE": 70,
    "cat": 70,
    "REM": 70,
    "spr": 70,
    "none": 69,
    "oct": 69,
    "aux": 69,
    "make": 69,
    "\u0120reference": 69,
    "WIN": 69,
    "\u0120these": 69,
    "Linux": 69,
    "Net": 69,
    "unknown": 69,
    "with": 69,
    "double": 69,
    "usage": 69,
    "onda": 69,
    "virt": 69,
    "burst": 68,
    "\u0120prefix": 68,
    "\u0120\"[": 68,
    "ISH": 68,
    "EXP": 68,
    "Temp": 68,
    "Of": 68,
    "ian": 68,
    "\u0120RES": 68,
    "Memory": 68,
    "sent": 68,
    "let": 68,
    "EEE": 68,
    "\u0120stun": 68,
    "Port": 68,
    "DM": 68,
    "esh": 68,
    "\u0120AC": 67,
    "\u0120counters": 67,
    "\u0120Not": 67,
    "urg": 67,
    "connected": 67,
    "ocks": 67,
    "\u0120!!": 67,
    "app": 67,
    "\u0120item": 67,
    "ISTER": 67,
    "Stop": 67,
    "TION": 67,
    "bes": 67,
    "mir": 67,
    "\u0120release": 67,
    "\u0120completion": 67,
    "opped": 67,
    "va": 67,
    "\u0120part": 67,
    "devices": 67,
    "\u0120shrink": 67,
    "\u0120large": 67,
    "ML": 67,
    "\u0120WE": 67,
    "\u0120correct": 67,
    "\u0120stat": 67,
    "ical": 67,
    "BA": 67,
    "man": 67,
    "fe": 67,
    "vol": 67,
    "\u0120ABS": 67,
    "mid": 67,
    "\u0120migr": 67,
    "UPDATE": 66,
    "\u0120nothing": 66,
    "ured": 66,
    "!!!": 66,
    "GROUP": 66,
    "may": 66,
    "pull": 66,
    "SPEC": 66,
    "\u0120sec": 66,
    "HC": 66,
    "\u0120fails": 66,
    "\u0120Exit": 66,
    "\u0120pp": 66,
    "\u0120HAVE": 66,
    "ummy": 66,
    "CONT": 66,
    "Statistics": 66,
    "Con": 66,
    "pal": 66,
    "\u0120dir": 66,
    "\u0120chunk": 66,
    "cor": 66,
    "FX": 66,
    "\u0120par": 66,
    "\u0120domain": 66,
    "defined": 65,
    "\u0120events": 65,
    "RI": 65,
    "OAD": 65,
    "generic": 65,
    "ARE": 65,
    "export": 65,
    "\u0120initial": 65,
    "\u0120race": 65,
    "Command": 65,
    "\u0120So": 65,
    "\u0120below": 65,
    "\u0120parameters": 65,
    "\u0120shared": 65,
    "\u0120Don": 65,
    "\u0120necessary": 65,
    "FIN": 65,
    "aring": 65,
    "hl": 65,
    "IDE": 65,
    "drivers": 65,
    "SSL": 65,
    "\u0120glyph": 65,
    "]+": 65,
    "\u0120IB": 65,
    "shadow": 65,
    "lies": 65,
    "lr": 65,
    "\u0120suspend": 64,
    "\u0120during": 64,
    "sequence": 64,
    "\u0120information": 64,
    "oun": 64,
    "ports": 64,
    "\u0120different": 64,
    "\u0120timed": 64,
    "\u0120mark": 64,
    "managed": 64,
    "CA": 64,
    "ARM": 64,
    "\u0120interrupts": 64,
    "css": 64,
    "Wait": 64,
    "ered": 64,
    "fi": 64,
    "roc": 64,
    "UME": 63,
    "frequency": 63,
    "\u0120prot": 63,
    "RAM": 63,
    "skip": 63,
    "\u0120AP": 63,
    "\u0120DT": 63,
    "\u0120requested": 63,
    "\u0120NET": 63,
    "\u0120mapping": 63,
    "\u0120allow": 63,
    "Active": 63,
    "Ad": 63,
    "\u0120configuration": 63,
    "\u0120maximum": 63,
    "\u0120least": 63,
    "ice": 63,
    "^": 63,
    "plus": 63,
    "adjust": 63,
    "\u0120counter": 63,
    "box": 63,
    "inv": 63,
    "REC": 63,
    "VOL": 63,
    "RP": 63,
    "ga": 63,
    "\u0120inf": 63,
    "ces": 63,
    "ITCH": 62,
    "\u0120UN": 62,
    "\u0120ap": 62,
    "Open": 62,
    "\u0120TYPE": 62,
    "\u0120...": 62,
    "\u0120bin": 62,
    "ENGTH": 62,
    "\u0120abort": 62,
    "\u012015": 62,
    "\u0120Now": 62,
    "||": 62,
    "\u0120de": 62,
    "().": 62,
    "GES": 62,
    "empt": 62,
    "eb": 62,
    "exec": 62,
    "PP": 62,
    "eff": 62,
    "PATH": 62,
    "\u0120filename": 62,
    "hire": 62,
    "Ab": 62,
    "elt": 62,
    "arian": 62,
    "EO": 61,
    "CHAR": 61,
    "\u0120np": 61,
    "med": 61,
    "Client": 61,
    "\u0120adapter": 61,
    "FIELD": 61,
    "\u0120hardware": 61,
    "\u0120initialized": 61,
    "\u0120Block": 61,
    "\u0120move": 61,
    "\u0120later": 61,
    "etch": 61,
    "VA": 61,
    "\u0120initialize": 61,
    "mk": 61,
    "FACE": 61,
    "rl": 61,
    "ao": 61,
    "cel": 61,
    "Feed": 61,
    "ays": 61,
    "na": 61,
    "trigger": 60,
    "slice": 60,
    "\u012014": 60,
    "\u0120height": 60,
    "WD": 60,
    "ATED": 60,
    "lib": 60,
    "\u0120obj": 60,
    "\u0120waiting": 60,
    "termin": 60,
    "ITION": 60,
    "\u0120Only": 60,
    "\u0120TM": 60,
    "\u0120poll": 60,
    "ists": 60,
    "huge": 60,
    "\u0120frequency": 60,
    "\u0120apps": 60,
    "\u0120reserved": 60,
    "IER": 60,
    "syn": 60,
    "users": 60,
    "dist": 60,
    "\u0120cluster": 60,
    "unit": 60,
    "quad": 60,
    "\u0120TW": 60,
    "feed": 60,
    "\u0120relocation": 60,
    "\u0120inferior": 60,
    "\u0120both": 59,
    "physical": 59,
    "ues": 59,
    "vs": 59,
    "Sir": 59,
    "\u0120location": 59,
    "\u0120between": 59,
    "\u0120dirty": 59,
    "rat": 59,
    "\u0120LE": 59,
    "Internal": 59,
    "eters": 59,
    "uple": 59,
    "iti": 59,
    "\u0120Send": 58,
    "\u0120discard": 58,
    "\u0120whether": 58,
    "\u0120many": 58,
    "network": 58,
    "reference": 58,
    "AMS": 58,
    "\u0120Device": 58,
    "\u0120Progress": 58,
    "Enabled": 58,
    "\u0120currently": 58,
    "\u0120such": 58,
    "\u0120under": 58,
    "allow": 58,
    "ability": 58,
    "before": 58,
    "27": 58,
    "ine": 58,
    "\u0120ns": 58,
    "\u0120simple": 58,
    "ions": 58,
    "\u0120connector": 58,
    "angle": 58,
    "\u0120tid": 58,
    "interpret": 58,
    "Buff": 58,
    "verage": 58,
    "ENCE": 57,
    "ands": 57,
    "\u0120SU": 57,
    "\u0120Add": 57,
    "\u0120pl": 57,
    "\u0120dump": 57,
    "hold": 57,
    "owl": 57,
    "\u0120SET": 57,
    "Sw": 57,
    "his": 57,
    "prim": 57,
    "ise": 57,
    "Max": 57,
    "SOURCE": 57,
    "\u0120notify": 57,
    "Enc": 57,
    "duration": 57,
    "ys": 57,
    "\u0120area": 57,
    "doms": 57,
    "\u0120ham": 57,
    "kg": 57,
    "\u0120leaf": 57,
    "\u0120DH": 57,
    "Light": 57,
    "\u0120NDP": 57,
    "unic": 56,
    "\u012018": 56,
    "\u0120idle": 56,
    "border": 56,
    "properties": 56,
    "leave": 56,
    "\u0120payload": 56,
    "\u0120BU": 56,
    "Import": 56,
    "\u0120band": 56,
    "Min": 56,
    "\u0120hex": 56,
    "form": 56,
    "Num": 56,
    "\u0120IF": 56,
    "\u0120receive": 56,
    "\u0120main": 56,
    "\u0120objects": 56,
    "\u0120above": 56,
    "\u0120tables": 56,
    "ILL": 56,
    "\u0120Write": 56,
    "GA": 56,
    "\u0120double": 56,
    "\u0120element": 56,
    "\u0120CL": 56,
    "\u0120window": 56,
    "\u0120early": 56,
    "\u0120TOD": 56,
    "help": 56,
    "ensions": 56,
    "ame": 56,
    "\u0120registers": 56,
    "NOW": 56,
    "\u0120FTC": 56,
    "\u0120PAR": 56,
    "clip": 56,
    "editor": 56,
    "\"},": 56,
    "iors": 56,
    "ings": 55,
    "\u0120DE": 55,
    "PRO": 55,
    "\u0120passed": 55,
    "\u0120checks": 55,
    "primary": 55,
    "\u0120present": 55,
    "\u0120dis": 55,
    "agg": 55,
    "Flags": 55,
    "\u0120were": 55,
    "\u0120HW": 55,
    "\u0120expected": 55,
    "\u0120DEF": 55,
    "\u0120shift": 55,
    "\u0120gen": 55,
    "usp": 55,
    "gov": 55,
    "rics": 55,
    "ENG": 55,
    "\u0120TRAN": 55,
    "ords": 55,
    "UAL": 55,
    "\u0120transport": 55,
    "\u0120force": 54,
    "\u0120partial": 54,
    "pped": 54,
    "\u0120bc": 54,
    "XP": 54,
    "\u0120take": 54,
    "ACTION": 54,
    "Mask": 54,
    "\u0120subst": 54,
    "\u0120look": 54,
    "\u0120la": 54,
    "\u0120freed": 54,
    "\u0120operation": 54,
    "\u0120ENTER": 54,
    "128": 54,
    "\u0120gets": 54,
    "running": 54,
    "\u0120shutdown": 54,
    "\u0120ready": 54,
    "\u0120due": 54,
    "adjusted": 54,
    "aining": 54,
    "\u0120AL": 54,
    "\u0120auto": 54,
    "room": 54,
    "pur": 54,
    "igned": 54,
    "rand": 54,
    "rf": 54,
    "\u0120share": 54,
    "gc": 54,
    "meter": 54,
    "tool": 54,
    "\u0120inst": 54,
    "\u0120oper": 54,
    "\u0120cop": 54,
    "front": 53,
    "\u0120root": 53,
    "hop": 53,
    "\u0120priv": 53,
    "same": 53,
    "Act": 53,
    "acket": 53,
    "31": 53,
    "\u0120pre": 53,
    "\u0120LR": 53,
    "\u0120multiple": 53,
    "\u0120best": 53,
    "\u0120top": 53,
    ";}": 53,
    "34": 53,
    "ratch": 53,
    "RED": 53,
    "ORS": 53,
    "ript": 53,
    "\u0120DEBUG": 53,
    "INS": 53,
    "..": 53,
    "ws": 53,
    "\u0120errors": 53,
    "ism": 53,
    "\u0120rob": 53,
    "Insert": 53,
    "binary": 53,
    "\u0120ob": 53,
    "RN": 53,
    "\u0120Sc": 53,
    "PART": 52,
    "35": 52,
    "\u0120post": 52,
    "\u0120feature": 52,
    "\u0120parameter": 52,
    "\u0120unknown": 52,
    "\u0120NO": 52,
    "eq": 52,
    "\u0120final": 52,
    "\u0120diff": 52,
    "IZ": 52,
    "Inter": 52,
    "\u0120happen": 52,
    "\u0120like": 52,
    "\u0120rec": 52,
    "\u0120tasks": 52,
    "07": 52,
    "iscovery": 52,
    "HR": 52,
    "EE": 52,
    "lot": 52,
    "\u0120AUD": 52,
    "exclusive": 52,
    "\u0120convert": 52,
    "Reply": 52,
    "looking": 52,
    "ading": 52,
    "ipt": 52,
    "ane": 51,
    "\u0120instead": 51,
    "\u0120255": 51,
    "\u0120features": 51,
    "OUN": 51,
    "PRESS": 51,
    "\u0120instance": 51,
    "drop": 51,
    "\u0120small": 51,
    "ECK": 51,
    "gam": 51,
    "Make": 51,
    "Update": 51,
    "vr": 51,
    "('": 51,
    "registered": 51,
    "\u0120machine": 51,
    "vers": 51,
    "rot": 51,
    "RECT": 51,
    "\u0120transfer": 51,
    "Se": 51,
    "met": 51,
    "\u0120ACL": 51,
    "ject": 51,
    "times": 51,
    "\u0120RAM": 51,
    "isa": 51,
    "\u0120dec": 51,
    "conv": 51,
    "unks": 51,
    "\u0120endpoint": 51,
    "DL": 51,
    "nil": 51,
    "afe": 51,
    "ALT": 51,
    "orts": 51,
    "\u0120Byte": 51,
    "Var": 51,
    "Sample": 51,
    "other": 50,
    "pan": 50,
    "ignore": 50,
    "\u0120stats": 50,
    "\u0120success": 50,
    "\u0120frag": 50,
    "\u0120RA": 50,
    "\u0120added": 50,
    "\u0120SS": 50,
    "checks": 50,
    "\u0120connected": 50,
    "ont": 50,
    "!\"": 50,
    "ISC": 50,
    "ERO": 50,
    "\u0120ok": 50,
    "\u0120delay": 50,
    "way": 50,
    "\u0120variable": 50,
    "\u0120ignore": 50,
    "\u0120much": 50,
    "\u0120delayed": 50,
    "ze": 50,
    "CLAIM": 50,
    "ish": 50,
    "RAW": 50,
    "atable": 50,
    "Material": 50,
    "\u0120unlock": 50,
    "\u0120codec": 50,
    "ETA": 50,
    "attery": 50,
    "track": 50,
    "ixels": 50,
    "eline": 50,
    "verb": 50,
    "bour": 50,
    "\u0120period": 49,
    "\u0120Config": 49,
    "uch": 49,
    "lic": 49,
    "ENTS": 49,
    "FIX": 49,
    "\u0120aligned": 49,
    "\u0120UDP": 49,
    "ORTS": 49,
    "izing": 49,
    "\u0120isn": 49,
    "idate": 49,
    "\u0120lookup": 49,
    "\u0120threshold": 49,
    "\u0120roam": 49,
    "\u0120completed": 49,
    "\u0120safe": 49,
    "\u0120Can": 49,
    "\u0120won": 49,
    "anon": 49,
    "\u0120ups": 49,
    "olation": 49,
    "\u0120segment": 49,
    "\u0120previous": 49,
    "OTS": 49,
    "\u0120query": 49,
    "alg": 49,
    "ceive": 49,
    "itions": 49,
    "\u0120sy": 49,
    "nb": 49,
    "\u0120MS": 49,
    "\u0120crypto": 49,
    "\u0120scatter": 49,
    "\u01201024": 49,
    "margin": 49,
    "rix": 49,
    "pect": 49,
    "rad": 49,
    "consumer": 49,
    "coord": 49,
    "iggle": 49,
    "history": 49,
    "expr": 49,
    "\u0120MIN": 48,
    ")[": 48,
    "EEP": 48,
    "ohl": 48,
    "\u0120RE": 48,
    "izes": 48,
    "ning": 48,
    "ients": 48,
    "pps": 48,
    ")/": 48,
    "Al": 48,
    "ELS": 48,
    "\u0120Find": 48,
    "hal": 48,
    "\u0120Update": 48,
    "Ind": 48,
    "orted": 48,
    "\u0120sequence": 48,
    "\u0120really": 48,
    "\u0120fs": 48,
    "capt": 48,
    "hub": 48,
    "\u0120extended": 48,
    "lif": 48,
    "\u0120hook": 48,
    "Library": 48,
    "Char": 48,
    "vari": 48,
    "ded": 48,
    "language": 48,
    "\u0120iron": 48,
    "GC": 48,
    "mar": 48,
    "xb": 48,
    "ovable": 48,
    "\u0120II": 48,
    "very": 48,
    "sun": 48,
    "Storage": 48,
    "\u0120na": 48,
    "Settings": 48,
    "\u0120saved": 47,
    "\u0120\\\"": 47,
    "ke": 47,
    "rn": 47,
    "buck": 47,
    "kh": 47,
    "REP": 47,
    "\u012013": 47,
    "leg": 47,
    "\u0120There": 47,
    "\u0120But": 47,
    "Byte": 47,
    "\u0120restart": 47,
    "\u0120addresses": 47,
    "activate": 47,
    "26": 47,
    "\u0120REG": 47,
    "ength": 47,
    "Keys": 47,
    "vance": 47,
    "hand": 47,
    "\u0120buff": 47,
    "\u0120tab": 47,
    "issue": 47,
    "cons": 47,
    "accept": 47,
    "secret": 47,
    "\u0120warning": 47,
    "Vari": 47,
    "aster": 47,
    "\u0120AE": 47,
    "\u0120dict": 47,
    "\u0120dim": 47,
    "\u0120had": 46,
    "\u0120Skip": 46,
    "\u0120Key": 46,
    "\u0120Convert": 46,
    "abel": 46,
    "apply": 46,
    "\u0120Sync": 46,
    "\u0120actually": 46,
    "Associated": 46,
    "\u0120Re": 46,
    "MG": 46,
    "Trans": 46,
    "\u0120frames": 46,
    "Ass": 46,
    "\u0120registered": 46,
    "Rep": 46,
    "\u0120step": 46,
    "\u0120Number": 46,
    "\u0120misc": 46,
    "ITS": 46,
    "Driver": 46,
    "Handler": 46,
    "LD": 46,
    "\u0120CT": 46,
    "btn": 46,
    "\u0120orig": 46,
    "LEASE": 46,
    "types": 46,
    "ipes": 46,
    "\u0120MI": 46,
    "\u0120word": 46,
    "\u0120ADC": 46,
    "sci": 46,
    "adv": 46,
    "vector": 46,
    "ference": 46,
    "MQ": 46,
    "Repl": 46,
    "gun": 46,
    "uddy": 46,
    "\u0120reading": 45,
    "\u0120otherwise": 45,
    "MAN": 45,
    "\u0120dc": 45,
    "Destroy": 45,
    "The": 45,
    "\u0120based": 45,
    "required": 45,
    "\u0120condition": 45,
    "caps": 45,
    "\u0120overflow": 45,
    "Spec": 45,
    "\u0120KEY": 45,
    "\u0120text": 45,
    "\u0120SIG": 45,
    "\u0120RED": 45,
    "Head": 45,
    "CRE": 45,
    "XT": 45,
    "evin": 45,
    "hist": 45,
    "play": 45,
    "\u0120ALL": 45,
    "\u0120IL": 45,
    "ider": 45,
    "cu": 45,
    "\u0120ACPI": 45,
    "\u0120looking": 45,
    "\u0120DL": 45,
    "sector": 45,
    "AU": 45,
    ")*": 45,
    "alog": 45,
    "Ar": 45,
    "\u0120af": 45,
    "eph": 45,
    "\u0120kg": 45,
    "XXX": 45,
    "\u0120J": 44,
    "\u0120sd": 44,
    "\u0120ERROR": 44,
    "role": 44,
    "hidden": 44,
    "MENT": 44,
    "\u0120NUM": 44,
    "aling": 44,
    "und": 44,
    "\u0120Free": 44,
    "\u0120cookie": 44,
    "\u0120leave": 44,
    "iod": 44,
    "Save": 44,
    "\u0120Fail": 44,
    "\u0120Reset": 44,
    "Result": 44,
    "\u0120aut": 44,
    "\u0120once": 44,
    "inker": 44,
    "Cache": 44,
    "\u0120When": 44,
    "\u0120going": 44,
    "random": 44,
    "IES": 44,
    "\u0120actual": 44,
    "neg": 44,
    "atibility": 44,
    "\u0120float": 44,
    "\u0120PL": 44,
    "semble": 44,
    "\u0120meta": 44,
    "\u0120@": 44,
    "fore": 44,
    "METHOD": 44,
    "NEW": 44,
    "Pixel": 44,
    "iron": 44,
    "\u0120GP": 44,
    "\u0120mov": 44,
    "\u0120body": 44,
    "HF": 44,
    "pire": 44,
    "\u0120Opt": 44,
    "edge": 44,
    "\u0120Message": 44,
    "Capture": 44,
    "\u0120commands": 43,
    "under": 43,
    "ping": 43,
    "nam": 43,
    "\u0120RC": 43,
    "dig": 43,
    "\u0120scale": 43,
    "\u0120BM": 43,
    "\u0120IPv": 43,
    "\u0120generate": 43,
    "\u0120following": 43,
    "\u0120doing": 43,
    "direct": 43,
    "\u0120special": 43,
    "67": 43,
    "\u0120PT": 43,
    "kid": 43,
    "WIND": 43,
    "ICAL": 43,
    "Inv": 43,
    "\u0120EV": 43,
    "weights": 43,
    "CN": 43,
    "\u0120GEN": 43,
    "isters": 43,
    "\u0120trial": 43,
    "\u0120expire": 43,
    "metadata": 43,
    "dict": 43,
    "oi": 43,
    "\u0120Card": 43,
    "ILE": 43,
    "Rel": 43,
    "oster": 43,
    "\u0120())": 43,
    "MIT": 42,
    "vi": 42,
    "\u0120generic": 42,
    "48": 42,
    "\u0120clean": 42,
    "walk": 42,
    "\u0120SE": 42,
    "needs": 42,
    "iled": 42,
    "\u0120TL": 42,
    "Ok": 42,
    "\u0120characters": 42,
    "stand": 42,
    "bm": 42,
    "\u0120LIN": 42,
    "uler": 42,
    "\u0120See": 42,
    "\u0120Host": 42,
    "\u0120swap": 42,
    "\u0120original": 42,
    "should": 42,
    "65": 42,
    "ints": 42,
    "available": 42,
    "touch": 42,
    "ract": 42,
    "\u0120exception": 42,
    "bg": 42,
    "\u012048": 42,
    "worker": 42,
    "SHA": 42,
    "Module": 42,
    "\u0120TRANS": 42,
    "\u0120unp": 42,
    "VT": 42,
    "Audio": 42,
    "rack": 42,
    "points": 42,
    "istent": 42,
    "charg": 42,
    "codes": 42,
    "spe": 42,
    "dead": 42,
    "visual": 42,
    "Point": 42,
    "\u0120history": 42,
    "\u0120ro": 41,
    "\u012030": 41,
    "dro": 41,
    "console": 41,
    "ict": 41,
    "ton": 41,
    "\u0120delete": 41,
    "ETH": 41,
    "itch": 41,
    "\u0120array": 41,
    "UID": 41,
    "\u0120well": 41,
    "\u0120firmware": 41,
    "\u0120Wait": 41,
    "\u0120tree": 41,
    "\u0120Otherwise": 41,
    "once": 41,
    "\u0120users": 41,
    "pressure": 41,
    "VIEW": 41,
    "\u0120128": 41,
    "\u0120verify": 41,
    "EAR": 41,
    "ave": 41,
    "ath": 41,
    "oo": 41,
    "\u0120iter": 41,
    "\u0120Use": 41,
    "\u0120ops": 41,
    "grid": 41,
    "needed": 41,
    "\u0120ENG": 41,
    "rule": 41,
    "RM": 41,
    "redits": 41,
    "Comb": 41,
    "\u0120DA": 41,
    "details": 41,
    "SIM": 41,
    "\u0120TEST": 41,
    "itional": 41,
    "obs": 41,
    "hu": 41,
    "ulse": 40,
    "))))": 40,
    "ress": 40,
    "inline": 40,
    "\u0120sa": 40,
    "\u0120red": 40,
    "BB": 40,
    "\u0120disabling": 40,
    "\u0120Un": 40,
    "\u0120greater": 40,
    "\u012019": 40,
    "AW": 40,
    "APTER": 40,
    "\u0120},": 40,
    "Send": 40,
    "\u0120con": 40,
    "\u0120dummy": 40,
    "\u0120normal": 40,
    "33": 40,
    "\u0120wrong": 40,
    "\u0120rem": 40,
    "wp": 40,
    "works": 40,
    "\u0120own": 40,
    "\u0120async": 40,
    "ename": 40,
    "\u0120bind": 40,
    "fixed": 40,
    "ison": 40,
    "engine": 40,
    "\u0120fmt": 40,
    "\u0120va": 40,
    "Cur": 40,
    "tz": 40,
    "download": 40,
    "\u0120ls": 40,
    "\u0120RP": 40,
    "Sep": 40,
    "rays": 40,
    "tri": 40,
    "fps": 39,
    "\u0120within": 39,
    "RB": 39,
    "Setting": 39,
    "\u0120FA": 39,
    "\u0120boundary": 39,
    "\u0120stored": 39,
    "pattern": 39,
    "rpm": 39,
    "\u0120calculate": 39,
    "\u0120able": 39,
    "MAR": 39,
    "\u0120))": 39,
    "Connect": 39,
    "car": 39,
    "\u0120notification": 39,
    "blocking": 39,
    "ASY": 39,
    "\u0120zones": 39,
    "cul": 39,
    "70": 39,
    "='": 39,
    ")+": 39,
    "\u0120validate": 39,
    "\u0120governor": 39,
    "\u0120family": 39,
    "linear": 39,
    "vo": 39,
    "\u0120rend": 39,
    "ouse": 39,
    "\u0120SPI": 39,
    "\u0120OB": 39,
    "BF": 39,
    "ENSE": 39,
    "fields": 39,
    "tes": 39,
    "atter": 39,
    "aches": 39,
    "\u0120trigger": 38,
    "565": 38,
    "lf": 38,
    "STEM": 38,
    "\u0120fit": 38,
    "ONT": 38,
    "LAB": 38,
    "\u0120pri": 38,
    "!!": 38,
    "\u0120disconnect": 38,
    "Dis": 38,
    "vision": 38,
    "\u012022": 38,
    "icate": 38,
    "\u0120Mark": 38,
    "\u0120close": 38,
    "Watch": 38,
    "\u0120contents": 38,
    "\u0120Page": 38,
    "An": 38,
    "91": 38,
    "true": 38,
    "ired": 38,
    "Mut": 38,
    "Debug": 38,
    "\u0120tries": 38,
    "EEK": 38,
    "\u0120XXX": 38,
    "\u0120ignored": 38,
    "TV": 38,
    "widget": 38,
    "ISON": 38,
    "gener": 38,
    "\u0120ah": 38,
    "\u0120method": 38,
    "\u0120hp": 38,
    "ELF": 38,
    "\u0120runtime": 38,
    "Clock": 38,
    "\u0120exp": 38,
    "journal": 38,
    "rypted": 38,
    "\u0120verb": 38,
    "ISA": 38,
    "chemy": 38,
    "\u0120FC": 38,
    "expl": 38,
    "\u0120comma": 38,
    "\u0120leases": 38,
    "ogram": 38,
    "isy": 38,
    "\u0120mad": 38,
    "\u0120specific": 37,
    "\u0120settings": 37,
    "UD": 37,
    "\u0120RT": 37,
    "**": 37,
    "arp": 37,
    "\u0120ag": 37,
    "scope": 37,
    "\u0120sin": 37,
    "\u0120initialization": 37,
    "Remove": 37,
    "ister": 37,
    "Band": 37,
    "Switch": 37,
    "\u0120transmit": 37,
    "NING": 37,
    "\u0120cause": 37,
    "\u0120did": 37,
    "\u0120returns": 37,
    "\u0120busy": 37,
    "ages": 37,
    "\u0120less": 37,
    "28": 37,
    "Out": 37,
    "acking": 37,
    "txt": 37,
    "anch": 37,
    "\u0120files": 37,
    "record": 37,
    "\u0120backlog": 37,
    "Process": 37,
    "\u0120su": 37,
    "\u0120timestamp": 37,
    "MET": 37,
    "ender": 37,
    "inf": 37,
    "ection": 37,
    "des": 37,
    "\u0120crypt": 37,
    "osity": 37,
    "ACA": 37,
    "iry": 37,
    "\u0120lun": 37,
    "bal": 37,
    "leaf": 37,
    "pose": 37,
    "695": 37,
    "Sam": 37,
    "itation": 37,
    "ear": 36,
    "\u0120Unable": 36,
    "\u0120Since": 36,
    "MIC": 36,
    "\u0120TAG": 36,
    "GM": 36,
    "\u0120removed": 36,
    "ANY": 36,
    "agram": 36,
    "clone": 36,
    "\u0120exists": 36,
    "\u0120SOL": 36,
    "rain": 36,
    "adj": 36,
    "Extra": 36,
    "\u0120side": 36,
    "Check": 36,
    "\u0120LOG": 36,
    "\u0120build": 36,
    "\u0120Max": 36,
    "URRENT": 36,
    "\u0120calls": 36,
    "\u0120Cannot": 36,
    "HY": 36,
    "\u0120mapped": 36,
    "\u0120usage": 36,
    "\u0120second": 36,
    "\u0120priority": 36,
    "\u0120anything": 36,
    "marks": 36,
    ";;": 36,
    "05": 36,
    "55": 36,
    "\u0120Start": 36,
    "weight": 36,
    "ized": 36,
    "lvl": 36,
    "OGR": 36,
    "pse": 36,
    "1024": 36,
    "\u012050": 36,
    "ades": 36,
    "\u0120track": 36,
    "OTAL": 36,
    "guard": 36,
    ")]": 36,
    "\u0120func": 36,
    "rep": 36,
    "\u0120insert": 36,
    "Me": 36,
    "8000": 36,
    "psy": 36,
    "./": 36,
    "Entry": 36,
    "forward": 36,
    "\u0120tunnel": 36,
    "NM": 36,
    "\u0120script": 36,
    "\u0120branch": 36,
    "\u0120os": 36,
    "will": 36,
    "\u0120slim": 36,
    "HH": 36,
    "Blocks": 36,
    "\u0120SDL": 36,
    "Inst": 36,
    "Parameters": 36,
    "\u0120US": 35,
    "ENDED": 35,
    "por": 35,
    "\u0120Enter": 35,
    "256": 35,
    "\u0120Return": 35,
    "gate": 35,
    "\u0120big": 35,
    "\u0120\"-": 35,
    "\u0120select": 35,
    "acy": 35,
    "MH": 35,
    "itive": 35,
    "Bridge": 35,
    "Release": 35,
    "'ve": 35,
    "\u0120assume": 35,
    "BP": 35,
    "From": 35,
    "\u0120Move": 35,
    "19": 35,
    "ulated": 35,
    "\u0120inc": 35,
    "apters": 35,
    "IRED": 35,
    "\u0120As": 35,
    "ull": 35,
    "\u0120their": 35,
    "\u0120something": 35,
    "485": 35,
    "THIS": 35,
    "MF": 35,
    "replace": 35,
    "\u0120cached": 35,
    "\u0120Filter": 35,
    "own": 35,
    "\u0120real": 35,
    "ocation": 35,
    "ITH": 35,
    "\u0120512": 35,
    "unal": 35,
    "\u0120iv": 35,
    "herent": 35,
    "ather": 35,
    "BOX": 35,
    "ait": 35,
    "\u0120turn": 35,
    "secure": 35,
    "015": 35,
    "ori": 35,
    "\u0120detected": 35,
    "\u012031": 35,
    "ner": 35,
    "\u0120intr": 35,
    "\u0120CRC": 35,
    "asm": 35,
    "even": 35,
    "\u0120mal": 35,
    "\u0120ab": 35,
    "\u0120freel": 35,
    "actions": 35,
    "fen": 35,
    "CHA": 35,
    "422": 35,
    "\u0120Elf": 35,
    "\u0120Power": 34,
    "\u0120directly": 34,
    "olate": 34,
    "\u0120external": 34,
    "ki": 34,
    "\u0120associated": 34,
    ",'": 34,
    "uh": 34,
    "\u0120updated": 34,
    "\u0120Ex": 34,
    "\u0120Copy": 34,
    "\u0120country": 34,
    "bor": 34,
    "\u0120layer": 34,
    "\u0120let": 34,
    "URR": 34,
    "\u0120stopped": 34,
    "\u0120OPEN": 34,
    "\u0120mut": 34,
    "\u0120progress": 34,
    "Register": 34,
    "\u0120probe": 34,
    "\u0120via": 34,
    "\u0120written": 34,
    "IOR": 34,
    "\u0120migrate": 34,
    "\u0120200": 34,
    "\u0120restore": 34,
    "\"[": 34,
    "\u0120finish": 34,
    "Tim": 34,
    "DX": 34,
    "\u0120duration": 34,
    "\u0120def": 34,
    "\u0120changes": 34,
    "forced": 34,
    "repair": 34,
    "enh": 34,
    "\u0120reserve": 34,
    "uth": 34,
    "\u0120codes": 34,
    "patch": 34,
    "\u0120gr": 34,
    "oms": 34,
    "icit": 34,
    "\u0120eth": 34,
    "\u0120dispatcher": 34,
    "ected": 34,
    "\u0120attempting": 34,
    "cand": 34,
    "IRT": 34,
    "\u0120AAC": 34,
    "Mesh": 34,
    "ometry": 34,
    "\u0120login": 34,
    "\u0120glob": 34,
    "Begin": 34,
    "bottom": 33,
    "\u0120provided": 33,
    "UC": 33,
    "RAG": 33,
    "Tag": 33,
    "variable": 33,
    "\u0120token": 33,
    "\u0120loc": 33,
    "\u0120CS": 33,
    "vote": 33,
    "For": 33,
    "ASON": 33,
    "Ap": 33,
    "Control": 33,
    "\u0120queues": 33,
    "aces": 33,
    "UES": 33,
    "destruct": 33,
    "\u0120que": 33,
    "\u0120unable": 33,
    "\u0120supports": 33,
    "Done": 33,
    "\u0120apply": 33,
    "\u0120];": 33,
    "\u0120links": 33,
    "\u0120existing": 33,
    "\u0120descriptor": 33,
    "\u0120Linux": 33,
    "ALE": 33,
    "\u0120Create": 33,
    "\u0120label": 33,
    "%.": 33,
    "\u0120RAND": 33,
    "library": 33,
    "script": 33,
    "orm": 33,
    "0000000": 33,
    "\u0120COM": 33,
    "GN": 33,
    "bsp": 33,
    "\u0120HF": 33,
    "IRE": 33,
    "requ": 33,
    "trap": 33,
    "Reading": 33,
    "\u0120TC": 33,
    "parser": 33,
    "\u0120(),": 33,
    "tel": 33,
    "\u0120sending": 32,
    "!\",": 32,
    "\u0120configure": 32,
    "\u0120(~": 32,
    "REE": 32,
    "\u0120past": 32,
    "UI": 32,
    "org": 32,
    "\u0120SK": 32,
    "GY": 32,
    "KEN": 32,
    "\u0120NOTE": 32,
    "500": 32,
    "raction": 32,
    "\u0120record": 32,
    "TAIN": 32,
    "\u0120However": 32,
    "\u0120Null": 32,
    "\u0120Received": 32,
    "\u0120First": 32,
    "25": 32,
    "\u0120though": 32,
    "\u0120hard": 32,
    "success": 32,
    "\u0120previously": 32,
    "major": 32,
    "\u0120started": 32,
    "\u0120allocations": 32,
    "was": 32,
    "\u0120Try": 32,
    "\u0120balance": 32,
    "51": 32,
    "Can": 32,
    "\u0120CAM": 32,
    "\u0120scratch": 32,
    "\u0120500": 32,
    "\u0120encoding": 32,
    "Message": 32,
    "related": 32,
    "\u0120\"\"": 32,
    "mo": 32,
    "\u0120()": 32,
    "RG": 32,
    "%-": 32,
    "writer": 32,
    "reader": 32,
    "earing": 32,
    "\u0120advance": 32,
    "Select": 32,
    "\u0120program": 32,
    "FM": 32,
    "364": 32,
    "NF": 32,
    "\u0120FO": 32,
    "wise": 32,
    "odd": 32,
    "round": 32,
    "vre": 32,
    "inqu": 32,
    "Bound": 32,
    "120": 32,
    "\u0120scoop": 32,
    "cular": 32,
    "clusion": 32,
    "cube": 32,
    "igh": 31,
    "\u0120alignment": 31,
    "boost": 31,
    "\u0120ass": 31,
    "\u0120starting": 31,
    "RFC": 31,
    "06": 31,
    "VP": 31,
    "Source": 31,
    "\u0120Is": 31,
    "\u0120Request": 31,
    "\u0120FW": 31,
    "Fl": 31,
    "\u0120WA": 31,
    "irty": 31,
    "\u0120controller": 31,
    "oom": 31,
    "xe": 31,
    "Global": 31,
    "istics": 31,
    "Values": 31,
    "FORE": 31,
    "OPS": 31,
    "\u0120accept": 31,
    ".'": 31,
    "\u0120merge": 31,
    "EF": 31,
    "pping": 31,
    "\u0120physical": 31,
    "HI": 31,
    "\u0120EL": 31,
    "esc": 31,
    "\u0120GT": 31,
    "\u0120signals": 31,
    "\u0120prop": 31,
    "\u0120sem": 31,
    "ature": 31,
    "modules": 31,
    "KB": 31,
    "equ": 31,
    "\u0120peer": 31,
    "Hub": 31,
    "\u0120elf": 31,
    "\u0120IND": 31,
    "DERR": 31,
    "ALS": 31,
    "\u0120SIM": 31,
    "Group": 31,
    "anches": 31,
    "Location": 31,
    "\u0120against": 30,
    "\u0120calling": 30,
    "\u0120around": 30,
    "\u012060": 30,
    "\u0120problem": 30,
    "simple": 30,
    "\u0120types": 30,
    "\u0120network": 30,
    "\u0120Par": 30,
    "mix": 30,
    "\u0120proto": 30,
    "\u0120bug": 30,
    "upper": 30,
    "\u0120OS": 30,
    "Desc": 30,
    "Ac": 30,
    "Total": 30,
    "\u0120you": 30,
    "Valid": 30,
    "GH": 30,
    "\u0120enter": 30,
    "\u0120sets": 30,
    "\u0120Register": 30,
    "\u0120modes": 30,
    "\u0120Ass": 30,
    "Sc": 30,
    "\u0120executing": 30,
    "BM": 30,
    "'ll": 30,
    "\u0120Init": 30,
    "ested": 30,
    "vict": 30,
    "\u0120care": 30,
    "\u0120Allow": 30,
    "\u0120remaining": 30,
    "\u0120every": 30,
    "\u0120direction": 30,
    "\u0120CPUs": 30,
    "links": 30,
    "\u0120report": 30,
    "\u0120checking": 30,
    "Level": 30,
    "\u0120defaults": 30,
    "limited": 30,
    "\u0120RFC": 30,
    "fall": 30,
    "lang": 30,
    "\u0120child": 30,
    "\u0120On": 30,
    "arget": 30,
    "XY": 30,
    "\u0120compression": 30,
    "Slot": 30,
    "\u0120search": 30,
    "lay": 30,
    "\u0120adjusted": 30,
    "\u0120CON": 30,
    "written": 30,
    "\u0120pe": 30,
    "oded": 30,
    "smart": 30,
    "xa": 30,
    "tre": 30,
    "dy": 30,
    "\u0120fal": 30,
    "=\"": 30,
    "arate": 30,
    "isel": 30,
    "loss": 29,
    "append": 29,
    "\u0120ones": 29,
    "\u0120common": 29,
    "\u0120created": 29,
    "\u0120pol": 29,
    "nex": 29,
    "balanced": 29,
    "\u0120voltage": 29,
    "ANC": 29,
    "\u0120align": 29,
    "\u01202000": 29,
    "\u0120offsets": 29,
    "\u0120fixed": 29,
    "Change": 29,
    "\u0120FE": 29,
    "\u0120prepare": 29,
    "\u0120cases": 29,
    "Close": 29,
    "\u0120concurrent": 29,
    "\u0120td": 29,
    "\u0120ensure": 29,
    "\u0120capability": 29,
    "\u0120minor": 29,
    "false": 29,
    "\u0120image": 29,
    "iting": 29,
    "Rest": 29,
    "644": 29,
    "\u0120unused": 29,
    "\u0120sw": 29,
    "une": 29,
    "\u0120inactive": 29,
    "\u0120tail": 29,
    "\u0120blocking": 29,
    "\u0120direct": 29,
    "\u0120makes": 29,
    "gap": 29,
    "ICT": 29,
    "\u0120AUT": 29,
    "mes": 29,
    "\u0120devices": 29,
    "Bus": 29,
    "\u0120\".": 29,
    "\u0120secret": 29,
    "vals": 29,
    "\u0120directory": 29,
    "\u0120heap": 29,
    "lace": 29,
    "\u0120registry": 29,
    "\u0120fence": 29,
    "\u0120clocks": 29,
    "420": 29,
    "\u0120\"#": 29,
    "xd": 29,
    "special": 29,
    "mx": 29,
    "mun": 29,
    "HM": 29,
    "alias": 29,
    "BRE": 29,
    "reverse": 29,
    "\u0120fabric": 29,
    "\u0120BO": 29,
    "ilt": 29,
    "Prev": 29,
    "\u0120au": 29,
    "kB": 29,
    "topic": 29,
    "doc": 29,
    "Depth": 29,
    "\u0120techn": 29,
    "\u0120annex": 29,
    "\u0120instr": 29,
    "ropy": 29,
    "\u0120disp": 28,
    "\u0120arguments": 28,
    "\u0120minimum": 28,
    "BUR": 28,
    "ERY": 28,
    "mine": 28,
    "\u0120Stop": 28,
    "?\"": 28,
    "usr": 28,
    "\u0120successfully": 28,
    "\u0120Setup": 28,
    "again": 28,
    "Initial": 28,
    "levels": 28,
    "\u0120modified": 28,
    "VI": 28,
    "\u0120larger": 28,
    "\u0120LOC": 28,
    "\u0120given": 28,
    "To": 28,
    "pb": 28,
    "ting": 28,
    "\u0120(-": 28,
    "IFF": 28,
    "Number": 28,
    "\u0120standby": 28,
    "\u0120download": 28,
    "held": 28,
    "Mod": 28,
    "\u0120Open": 28,
    "\u0120indicate": 28,
    "\u0120requests": 28,
    "\u0120inside": 28,
    "\u0120fatal": 28,
    "ited": 28,
    "\u0120perform": 28,
    "\u0120writing": 28,
    "\u0120ram": 28,
    "\u0120submit": 28,
    "\u0120comp": 28,
    "\u0120transaction": 28,
    "\u0120REC": 28,
    "\u0120very": 28,
    "\u0120fil": 28,
    "\u0120Data": 28,
    "\u0120Pack": 28,
    "\u012040": 28,
    "lers": 28,
    "\u0120selected": 28,
    "\u0120co": 28,
    "\u0120contains": 28,
    "agle": 28,
    "large": 28,
    "half": 28,
    "ned": 28,
    "\u0120processing": 28,
    "OND": 28,
    "\u0120hold": 28,
    "panic": 28,
    "\u0120Sp": 28,
    "\u0120ident": 28,
    "pected": 28,
    "ier": 28,
    "life": 28,
    "\u0120An": 28,
    "\u0120gu": 28,
    "Service": 28,
    "SF": 28,
    "best": 28,
    "\u0120rest": 28,
    "ette": 28,
    "otal": 28,
    "\u0120tv": 28,
    "\u0120MAR": 28,
    "\u0120TI": 28,
    "\u0120sanity": 28,
    "ham": 28,
    "\u0120im": 28,
    "lla": 28,
    "=(": 28,
    "\u0120cipher": 28,
    "Mark": 28,
    "ception": 28,
    "wk": 28,
    "\u0120puts": 28,
    "words": 28,
    "\u0120sci": 28,
    "eter": 28,
    "sal": 28,
    "UV": 28,
    "igma": 28,
    "amd": 28,
    "Specific": 28,
    "parts": 28,
    "general": 28,
    "\u0120POP": 28,
    "\u0120ON": 27,
    "\u0120SW": 27,
    "fff": 27,
    "\u0120configured": 27,
    "bank": 27,
    "\u0120encryption": 27,
    "\u0120integer": 27,
    "\u0120master": 27,
    "\u0120ki": 27,
    "security": 27,
    "\u0120hot": 27,
    "itches": 27,
    "\u0120note": 27,
    "iso": 27,
    "\u0120longer": 27,
    "\u0120functions": 27,
    "\u0120spaces": 27,
    "\u0120Command": 27,
    "\u0120('": 27,
    "\u0120upper": 27,
    "Found": 27,
    "\u0120touch": 27,
    "Version": 27,
    "\u0120rather": 27,
    "\u0120probably": 27,
    "\u0120kill": 27,
    "\u0120schedule": 27,
    "68": 27,
    "WP": 27,
    "\u0120Enc": 27,
    "Or": 27,
    "0001": 27,
    "\u0120kHz": 27,
    "\u0120recovery": 27,
    "items": 27,
    "rite": 27,
    "\u0120reader": 27,
    "\u0120half": 27,
    "orph": 27,
    "\u0120visible": 27,
    "ILD": 27,
    "aker": 27,
    "nav": 27,
    "wid": 27,
    "wrong": 27,
    "outs": 27,
    "'d": 27,
    "Cont": 27,
    "ceed": 27,
    "\u0120things": 27,
    "above": 27,
    "\u0120sign": 27,
    "INGS": 27,
    "\u0120drivers": 27,
    "\u0120volatile": 27,
    "outine": 27,
    "010": 27,
    "visible": 27,
    "\u0120FM": 27,
    "\u0120OF": 27,
    "abilities": 27,
    "ounter": 27,
    "Db": 27,
    "aves": 27,
    "\u0120es": 27,
    "\u0120OP": 27,
    "\u0120fib": 27,
    "umer": 27,
    "Use": 27,
    "Priv": 27,
    "\u0120IMP": 27,
    "!,": 27,
    "\u0120\"$": 27,
    "PAC": 27,
    "Transfer": 27,
    "flight": 27,
    "\u0120plugin": 27,
    "sell": 27,
    "achment": 27,
    "\u0120sip": 27,
    "radio": 27,
    "\u0120col": 26,
    "\u0120fps": 26,
    "xs": 26,
    "\u0120Need": 26,
    "\u0120OFF": 26,
    "pen": 26,
    "\u0120prevent": 26,
    "\u0120These": 26,
    "\u0120mall": 26,
    "\u0120attributes": 26,
    "\u0120guarantee": 26,
    "\u0120interval": 26,
    "ters": 26,
    ")|": 26,
    "\u0120requires": 26,
    "Ready": 26,
    "\u0120Time": 26,
    "country": 26,
    "\u0120Change": 26,
    "\u0120abs": 26,
    "\u0120seconds": 26,
    "Feature": 26,
    "\u0120forever": 26,
    "\u0120soft": 26,
    "\u0120retrieve": 26,
    "\u0120WC": 26,
    "BER": 26,
    "finished": 26,
    "\u0120Tag": 26,
    "\u0120OK": 26,
    "IBLE": 26,
    "xit": 26,
    "ATH": 26,
    "\u0120adjust": 26,
    "\u0120detect": 26,
    "util": 26,
    "nic": 26,
    "builder": 26,
    "loader": 26,
    "Shut": 26,
    "\u0120handling": 26,
    "gro": 26,
    "\u0120Size": 26,
    "\u0120missing": 26,
    "nexpected": 26,
    "\u0120seen": 26,
    "pton": 26,
    "two": 26,
    "\u0120SA": 26,
    "\u0120multi": 26,
    "OWN": 26,
    "Met": 26,
    "rend": 26,
    "ted": 26,
    "\u0120trans": 26,
    "sts": 26,
    "CLUS": 26,
    "\u0120media": 26,
    "plex": 26,
    "ient": 26,
    "ibr": 26,
    "dim": 26,
    "VERS": 26,
    ")?": 26,
    "\u0120bi": 26,
    "Edge": 26,
    "techn": 26,
    "Exc": 26,
    "\u0120Mode": 25,
    "ocating": 25,
    "\u0120Default": 25,
    "\u0120BL": 25,
    "\u0120results": 25,
    "\u0120DOT": 25,
    "icator": 25,
    "\u0120pattern": 25,
    "CAST": 25,
    "\u0120compute": 25,
    "fold": 25,
    "\u012025": 25,
    "\u0120ve": 25,
    "span": 25,
    "\u0120PD": 25,
    "\u0120AM": 25,
    "\u0120future": 25,
    "oss": 25,
    "Val": 25,
    "\u0120unless": 25,
    "\u0120To": 25,
    "\u0120Let": 25,
    "\u0120processes": 25,
    "\u0120better": 25,
    "\u0120determine": 25,
    "nos": 25,
    "\u0120equal": 25,
    "\u0120place": 25,
    "81": 25,
    "\u0120SR": 25,
    "fork": 25,
    "Bytes": 25,
    "execute": 25,
    "ste": 25,
    "Element": 25,
    "\u0120tell": 25,
    "\u0120fast": 25,
    "\u0120aren": 25,
    "\u0120amp": 25,
    "rol": 25,
    "\u0120room": 25,
    "DER": 25,
    "wind": 25,
    "layout": 25,
    "loads": 25,
    "limits": 25,
    "stage": 25,
    "external": 25,
    "\u0120certificate": 25,
    "\u0120random": 25,
    "\u0120attached": 25,
    "\u0120didn": 25,
    "\u0120debugging": 25,
    "IAN": 25,
    "\u0120VERS": 25,
    "\u0120GC": 25,
    "AX": 25,
    "rg": 25,
    "ox": 25,
    "usc": 25,
    "\u0120virt": 25,
    "\u0120board": 25,
    "ounds": 25,
    "opened": 25,
    "\u0120slave": 25,
    "\u0120identifier": 25,
    "alls": 25,
    "\u0120term": 25,
    "real": 25,
    "Sem": 25,
    "ments": 25,
    "wt": 25,
    "away": 25,
    "Word": 25,
    "mia": 25,
    "Cond": 25,
    "\u0120std": 25,
    "\u0120HB": 25,
    "nie": 25,
    "\u0120gun": 25,
    "\u0120Thread": 25,
    "xml": 25,
    "mediate": 24,
    "using": 24,
    "\u0120matching": 24,
    "\u0120Clean": 24,
    "slow": 24,
    "nom": 24,
    "\u0120padd": 24,
    "\u0120sizes": 24,
    "\u0120LA": 24,
    "import": 24,
    "\u0120away": 24,
    "Common": 24,
    "\u0120specify": 24,
    "\u0120Ab": 24,
    "\u0120issue": 24,
    "\u0120ahead": 24,
    "\u0120character": 24,
    "abling": 24,
    "\u0120API": 24,
    "\u0120Save": 24,
    "\u0120outside": 24,
    "\u0120reported": 24,
    "cong": 24,
    "\u0120Some": 24,
    "\u0120dropped": 24,
    "\u0120handled": 24,
    "\u0120dead": 24,
    "many": 24,
    "tor": 24,
    "\u0120statistics": 24,
    "\u0120higher": 24,
    "\u0120trying": 24,
    "600": 24,
    "},": 24,
    "sat": 24,
    "VERT": 24,
    "Auth": 24,
    "\u0120ind": 24,
    "ATES": 24,
    "\u0120vendor": 24,
    "><": 24,
    "\u0120cap": 24,
    "\u0120Handle": 24,
    "ags": 24,
    "\u0120rep": 24,
    "feat": 24,
    "\u0120padding": 24,
    "\u0120\"(": 24,
    "INST": 24,
    "\u0120indicator": 24,
    "ther": 24,
    "\u0120expires": 24,
    "\u0120cont": 24,
    "chrom": 24,
    "Sa": 24,
    "\u0120exist": 24,
    "padding": 24,
    "\u0120font": 24,
    "\u0120instructions": 24,
    "stable": 24,
    "\u0120uses": 24,
    "where": 24,
    "race": 24,
    "\u0120conversion": 24,
    "rees": 24,
    "\u0120imm": 24,
    "\u0120positions": 24,
    "mal": 24,
    "\u0120news": 24,
    "cape": 24,
    "ida": 24,
    "\u0120FAM": 24,
    "sections": 24,
    "umb": 24,
    "\u0120SAS": 24,
    "\u0120grid": 24,
    "application": 24,
    "Weight": 24,
    "Alpha": 24,
    "lighting": 24,
    "pod": 24,
    "163": 24,
    "\u0120thermal": 24,
    "OSE": 23,
    "iz": 23,
    "\u0120corresponding": 23,
    "credit": 23,
    "\u0120mismatch": 23,
    "\u0120PK": 23,
    "\u0120EVENT": 23,
    "DN": 23,
    "ea": 23,
    "\u0120wants": 23,
    "zu": 23,
    "THER": 23,
    "more": 23,
    "when": 23,
    "rait": 23,
    "\u0120scalable": 23,
    "VIS": 23,
    "\u0120em": 23,
    "\u0120pointers": 23,
    "If": 23,
    "\u0120State": 23,
    "\u0120comm": 23,
    "Default": 23,
    "operation": 23,
    "center": 23,
    "\u0120connect": 23,
    "\u0120At": 23,
    "\u0120Watch": 23,
    "iva": 23,
    "\u0120parsing": 23,
    "\u0120loaded": 23,
    "\u0120MHz": 23,
    "its": 23,
    "De": 23,
    "ocked": 23,
    "\u0120Test": 23,
    "\u0120pressure": 23,
    "\u0120itself": 23,
    "\u0120those": 23,
    "\u0120vs": 23,
    "\u0120lists": 23,
    "\u0120reb": 23,
    "\u0120getting": 23,
    "\u0120spec": 23,
    "aw": 23,
    "\u0120Off": 23,
    "\u0120sibling": 23,
    "\u0120known": 23,
    "ROM": 23,
    "\u0120forced": 23,
    "charge": 23,
    "\u0120hit": 23,
    "olen": 23,
    "Ctrl": 23,
    "\u0120view": 23,
    "beta": 23,
    "shown": 23,
    "sam": 23,
    ")-": 23,
    "DO": 23,
    "och": 23,
    "\u0120OPT": 23,
    "Div": 23,
    "\u0120position": 23,
    "aled": 23,
    "\u0120655": 23,
    "255": 23,
    "iling": 23,
    "TI": 23,
    "\u0120bound": 23,
    "\u0120fif": 23,
    "TW": 23,
    "00000": 23,
    "\u0120READ": 23,
    "\u0120partition": 23,
    "\u0120domains": 23,
    "\u0120dom": 23,
    "ble": 23,
    "cells": 23,
    "\u0120style": 23,
    "gn": 23,
    "\u0120MY": 23,
    "MY": 23,
    "\u0120mysql": 23,
    "eno": 23,
    "\u0120hr": 23,
    "-----": 23,
    "weak": 23,
    "Quant": 23,
    "scribe": 23,
    "\u0120Target": 23,
    "Sym": 23,
    "\u0120ire": 23,
    "VL": 23,
    "\u0120av": 23,
    "eps": 23,
    "inates": 23,
    "\u0120SEC": 23,
    "\u0120doc": 23,
    "Spe": 23,
    "\u0120NS": 22,
    "broad": 22,
    "\u0120timing": 22,
    "NESS": 22,
    "ailing": 22,
    "Wr": 22,
    "\u0120properly": 22,
    "As": 22,
    "\u0120proper": 22,
    "\u0120sadd": 22,
    "rag": 22,
    "\u0120architecture": 22,
    "ual": 22,
    "Ret": 22,
    "Non": 22,
    "\u0120revision": 22,
    "Th": 22,
    "\u0120correctly": 22,
    "\u0120LCD": 22,
    "\u0120Bad": 22,
    "ling": 22,
    "\u0120holding": 22,
    "\u0120Global": 22,
    "\u0120Address": 22,
    "\u0120everything": 22,
    "\u0120station": 22,
    "\u0120scanning": 22,
    "\u0120filesystem": 22,
    "\u0120updates": 22,
    "\u0120most": 22,
    "\u0120smaller": 22,
    "\u0120attempt": 22,
    "\u0120whole": 22,
    "\u0120usable": 22,
    "\u0120managed": 22,
    "\u0120Bit": 22,
    "101": 22,
    "85": 22,
    "\u0120DATA": 22,
    "---": 22,
    "\u0120Could": 22,
    "Timeout": 22,
    "\u0120VO": 22,
    "\u0120Should": 22,
    "INAL": 22,
    "\u0120shouldn": 22,
    "TB": 22,
    "\u0120sockets": 22,
    "mented": 22,
    "\u0120logical": 22,
    "\u0120successful": 22,
    "multipl": 22,
    "uced": 22,
    "lass": 22,
    "che": 22,
    "\u0120mt": 22,
    "\u0120SB": 22,
    "ends": 22,
    "ants": 22,
    "OH": 22,
    "cost": 22,
    "ELD": 22,
    "\u0120phys": 22,
    "\u0120deal": 22,
    "NAT": 22,
    "lap": 22,
    "\u0120security": 22,
    "\u0120CARD": 22,
    "have": 22,
    "ols": 22,
    "\u0120ver": 22,
    "mn": 22,
    "\u0120details": 22,
    "eval": 22,
    "\u0120ion": 22,
    "ocr": 22,
    "\u0120KS": 22,
    "cms": 22,
    "\u0120ice": 22,
    "\u0120verification": 22,
    "Equ": 22,
    "Hist": 22,
    "Occ": 22,
    "clips": 22,
    "gments": 22,
    "\u0120cis": 22,
    "resolution": 21,
    "\u0120refresh": 21,
    "\u0120consider": 21,
    "\u0120checked": 21,
    "\u0120fn": 21,
    "\u0120en": 21,
    "\u0120Call": 21,
    "zb": 21,
    "\u0120STA": 21,
    "\u0120Inter": 21,
    "too": 21,
    "\u0120slow": 21,
    "\u0120etc": 21,
    "oring": 21,
    "ool": 21,
    "what": 21,
    "Ops": 21,
    "\u0120occurred": 21,
    "\u0120serv": 21,
    "IFIED": 21,
    "\u0120cc": 21,
    "\u0120De": 21,
    "\u0120ensures": 21,
    "\u0120Remove": 21,
    "\u0120AN": 21,
    "manager": 21,
    "ous": 21,
    "\u0120scanned": 21,
    "\u0120succeed": 21,
    "aken": 21,
    "ound": 21,
    "\u0120give": 21,
    "ance": 21,
    "\u0120writ": 21,
    "37": 21,
    "62": 21,
    "150": 21,
    "\u0120pag": 21,
    "802": 21,
    "ATT": 21,
    "104": 21,
    "\u0120rule": 21,
    "ified": 21,
    "Network": 21,
    "repeat": 21,
    "correct": 21,
    "\u0120loops": 21,
    "wa": 21,
    ".\",": 21,
    "button": 21,
    "HL": 21,
    "\u0120FIN": 21,
    "FO": 21,
    "uni": 21,
    "udo": 21,
    "linger": 21,
    "IONS": 21,
    "vin": 21,
    "\u0120Calcul": 21,
    "\u0120conf": 21,
    "\u0120MM": 21,
    "ributes": 21,
    "\u0120stage": 21,
    "MU": 21,
    "ICES": 21,
    "\u0120description": 21,
    "\u0120Just": 21,
    "serv": 21,
    "\u0120scaled": 21,
    "ern": 21,
    "\u0120SF": 21,
    "\u0120sprite": 21,
    "inding": 21,
    "highest": 21,
    "\u0120EE": 21,
    "\u0120signed": 21,
    "UF": 21,
    "\u0120pull": 21,
    "\u0120capabilities": 21,
    "\u0120rm": 21,
    "\u0120frozen": 21,
    "$": 21,
    "512": 21,
    "\u0120sector": 21,
    "bre": 21,
    "\u0120emit": 21,
    "secondary": 21,
    "\u0120SER": 21,
    "ONES": 21,
    "\u0120bail": 21,
    "\u0120JS": 21,
    "received": 21,
    "\u0120replay": 21,
    "inate": 21,
    "origin": 21,
    "\u0120kb": 21,
    "\u0120EC": 21,
    "els": 21,
    "Factor": 21,
    "Editor": 21,
    "adapt": 21,
    "except": 21,
    "unction": 21,
    "atus": 21,
    "\u0120cov": 21,
    "ators": 21,
    "\u0120TH": 21,
    "\u0120expression": 21,
    "kind": 21,
    "\u0120ELE": 21,
    "263": 21,
    "ler": 20,
    "\u0120account": 20,
    "\u0120messages": 20,
    "\u0120Event": 20,
    "\u0120supp": 20,
    "\u0120Keep": 20,
    "ARP": 20,
    "\u0120beacon": 20,
    "\u0120exceeds": 20,
    "\u0120score": 20,
    "ulators": 20,
    "\u0120{}": 20,
    "\u012021": 20,
    "\u0120Bridge": 20,
    "\u0120Channel": 20,
    "\u0120inter": 20,
    "faces": 20,
    "\u0120registration": 20,
    "\u0120good": 20,
    "LI": 20,
    "\u0120closed": 20,
    "\u0120further": 20,
    "\u0120synchron": 20,
    "\u0120Put": 20,
    "recent": 20,
    "RW": 20,
    "\u0120amount": 20,
    "\u0120takes": 20,
    "\u0120aborted": 20,
    "87": 20,
    "\u0120led": 20,
    "day": 20,
    "ushed": 20,
    "\u0120enabling": 20,
    "\u0120COR": 20,
    "performance": 20,
    "img": 20,
    "always": 20,
    "\u0120locked": 20,
    "ORK": 20,
    "\u0120he": 20,
    "\u0120follow": 20,
    "\u0120released": 20,
    "\u0120iteration": 20,
    "001": 20,
    "\u0120br": 20,
    "fig": 20,
    "LM": 20,
    "like": 20,
    "\u0120stride": 20,
    "\u0120pack": 20,
    "\u0120scope": 20,
    "::": 20,
    "tern": 20,
    "\u0120choose": 20,
    "live": 20,
    "aque": 20,
    "\u0120fetch": 20,
    "\u0120man": 20,
    "\u0120Information": 20,
    "\u0120'/": 20,
    "\u0120bio": 20,
    "\":": 20,
    "ITT": 20,
    "\u0120comment": 20,
    "eg": 20,
    "andy": 20,
    "\u0120train": 20,
    "\u0120whilst": 20,
    "\u0120POS": 20,
    "agent": 20,
    "ystem": 20,
    "arant": 20,
    "oline": 20,
    "\u0120Frame": 20,
    "Turn": 20,
    "vel": 20,
    "384": 20,
    "SAM": 20,
    "ssl": 20,
    "volume": 20,
    "\u0120expired": 20,
    "\u0120PU": 20,
    "seen": 20,
    "\u0120mesh": 20,
    "started": 20,
    "ww": 20,
    "OA": 20,
    "ifa": 20,
    "\u0120ALS": 20,
    "\u0120distance": 20,
    "\u0120versatile": 20,
    "\u0120Controller": 20,
    "tem": 20,
    "Iter": 20,
    "\u0120pars": 20,
    "acs": 20,
    "Region": 20,
    "\u0120mass": 20,
    "tags": 20,
    "angles": 20,
    "oking": 20,
    "usion": 20,
    "ereo": 20,
    "comment": 20,
    "ibe": 20,
    "\u0120gre": 20,
    "tap": 20,
    "\u0120dynamic": 19,
    "fram": 19,
    "tra": 19,
    "EDIT": 19,
    "\":\"": 19,
    "TOP": 19,
    "\u0120Type": 19,
    "123": 19,
    "\u0120destroy": 19,
    "\u0120syn": 19,
    "\u0120Po": 19,
    "Link": 19,
    "etting": 19,
    "\u0120neighbor": 19,
    "oving": 19,
    "\u0120pointing": 19,
    "\u0120Dis": 19,
    "\u0120primary": 19,
    "\u0120NV": 19,
    "resses": 19,
    "\u0120FI": 19,
    "\u0120twice": 19,
    "\u0120thus": 19,
    "\u0120cleared": 19,
    "\u0120except": 19,
    "disk": 19,
    "\u0120Comp": 19,
    "lists": 19,
    "\u0120TT": 19,
    "iber": 19,
    "\u0120round": 19,
    "ourn": 19,
    "\u0120immediately": 19,
    "rying": 19,
    "zl": 19,
    "being": 19,
    "ats": 19,
    "hh": 19,
    "ATER": 19,
    "160": 19,
    "\u0120LIST": 19,
    "\u0120execute": 19,
    "\u0120discovery": 19,
    "Layer": 19,
    "\u0120offline": 19,
    "\u0120relation": 19,
    "\u0120segments": 19,
    "\u0120resources": 19,
    "usted": 19,
    "\u012062": 19,
    "Find": 19,
    "small": 19,
    "\u0120fragment": 19,
    "\u0120help": 19,
    "\u0120LED": 19,
    "sort": 19,
    "Monitor": 19,
    "backs": 19,
    "Async": 19,
    "ashes": 19,
    "'.": 19,
    "zer": 19,
    "public": 19,
    "\u0120temporary": 19,
    "\u0120render": 19,
    "typ": 19,
    "\u0120binary": 19,
    "font": 19,
    "Fix": 19,
    "ker": 19,
    "\u0120QU": 19,
    "\u0120conditions": 19,
    "\u0120FP": 19,
    "die": 19,
    "\u0120routine": 19,
    "\u0120chain": 19,
    "rules": 19,
    "+=": 19,
    "Integer": 19,
    "INO": 19,
    "idth": 19,
    "\u0120CONTROL": 19,
    "\u0120il": 19,
    "\u0120generated": 19,
    "did": 19,
    "dq": 19,
    "\u0120JD": 19,
    "pers": 19,
    "pair": 19,
    "uring": 19,
    "406": 19,
    "ktop": 19,
    "isec": 19,
    "ena": 19,
    "\u0120bay": 19,
    "\u0120er": 19,
    "Response": 19,
    "\u0120CONT": 19,
    "Float": 19,
    "\u0120topic": 19,
    "\u0120dimension": 19,
    "amb": 19,
    "upload": 19,
    "\u0120ign": 19,
    "lust": 19,
    "\u0120duty": 18,
    "\u0120compare": 18,
    "ether": 18,
    "oa": 18,
    "\u0120prec": 18,
    "\u0120Deter": 18,
    "\u0120terminated": 18,
    "\u0120push": 18,
    "\u0120Link": 18,
    "could": 18,
    "\u0120sport": 18,
    "Hz": 18,
    "\u012028": 18,
    "\u0120helper": 18,
    "\u0120Fill": 18,
    "but": 18,
    "olve": 18,
    "\u0120Val": 18,
    "Empty": 18,
    ".*": 18,
    "\u0120followed": 18,
    "\u0120beginning": 18,
    "\u0120ether": 18,
    "\u0120scheduled": 18,
    "Ign": 18,
    "ha": 18,
    "This": 18,
    "Counter": 18,
    "\u0120negative": 18,
    "\u0120lost": 18,
    "ERE": 18,
    "snap": 18,
    "\u0120little": 18,
    "itable": 18,
    "\u0120reserves": 18,
    "54": 18,
    "09": 18,
    "\u0120brightness": 18,
    "\u0120ISP": 18,
    "QL": 18,
    "\u0120legacy": 18,
    "deep": 18,
    "lection": 18,
    "\u0120strict": 18,
    "mitted": 18,
    "\u0120cleaned": 18,
    "With": 18,
    "activity": 18,
    "\u0120PA": 18,
    "\u0120RET": 18,
    "+(": 18,
    "\u0120adding": 18,
    "\u0120subs": 18,
    "ibling": 18,
    "\u0120MAS": 18,
    "\u0120protected": 18,
    "\u0120occurs": 18,
    "arl": 18,
    "\u0120hole": 18,
    "\u0120MT": 18,
    "\u0120headers": 18,
    "\u0120engine": 18,
    "\u0120Y": 18,
    "iframe": 18,
    "\u0120Nothing": 18,
    "ernel": 18,
    "\u0120prior": 18,
    "\u0120definition": 18,
    "##": 18,
    "800": 18,
    "aph": 18,
    "aint": 18,
    "description": 18,
    "\u0120writer": 18,
    "\u0120points": 18,
    "\u0120am": 18,
    "\u01202048": 18,
    "\u0120detection": 18,
    "\u0120Switch": 18,
    "\u0120attach": 18,
    "children": 18,
    "\u0120subsequent": 18,
    "\u0120dup": 18,
    "odo": 18,
    "LER": 18,
    "ocl": 18,
    "\u0120et": 18,
    "\u0120absolute": 18,
    "umber": 18,
    "blog": 18,
    "\u0120detach": 18,
    "\u0120draw": 18,
    "\u0120virtual": 18,
    "\u0120lb": 18,
    "kick": 18,
    "Fill": 18,
    "headers": 18,
    "ained": 18,
    "ases": 18,
    "lish": 18,
    "ches": 18,
    "leader": 18,
    "\u0120DV": 18,
    "ences": 18,
    "Show": 18,
    "orr": 18,
    "igs": 18,
    "prov": 18,
    "holder": 18,
    "\u0120sim": 18,
    "nz": 18,
    "missing": 18,
    "\u0120cred": 18,
    "Hyper": 18,
    "cluding": 18,
    "cluded": 18,
    "isf": 18,
    "cision": 18,
    "izzle": 18,
    "090": 18,
    "\u0120lame": 18,
    "\u0120ut": 18,
    "nels": 18,
    "\u0120buddy": 18,
    "\u0120lust": 18,
    "packing": 17,
    "LT": 17,
    "NP": 17,
    "\u0120isolate": 17,
    "\u0120appropriate": 17,
    "OTHER": 17,
    "ife": 17,
    "maybe": 17,
    "210": 17,
    "Up": 17,
    "DOM": 17,
    "HOME": 17,
    "\u0120supplies": 17,
    "\u0120And": 17,
    "\u0120numbers": 17,
    "rict": 17,
    "\u0120Setting": 17,
    "\u0120starts": 17,
    "\u0120Ensure": 17,
    "\u0120rad": 17,
    "\u0120optional": 17,
    "\u0120broken": 17,
    "Test": 17,
    "\u0120indicates": 17,
    "den": 17,
    "thro": 17,
    "ttle": 17,
    "\u0120Thus": 17,
    "\u0120causes": 17,
    "\u0120anyway": 17,
    "uma": 17,
    "\u0120online": 17,
    "]=": 17,
    "92": 17,
    "46": 17,
    "83": 17,
    "82": 17,
    "41": 17,
    "\u0120End": 17,
    "EMS": 17,
    "which": 17,
    "\u0120DHCP": 17,
    "\u0120unit": 17,
    "\u0120Print": 17,
    "PLIC": 17,
    "ak": 17,
    "ick": 17,
    "ISE": 17,
    "\u0120moved": 17,
    "\u0120exactly": 17,
    "\u0120CD": 17,
    "\u0120themes": 17,
    "seconds": 17,
    "\u0120drive": 17,
    "\u0120deleted": 17,
    "hole": 17,
    "\u0120STATE": 17,
    "\u0120sum": 17,
    "\u0120assign": 17,
    "\u0120pad": 17,
    "10000": 17,
    "might": 17,
    "\u0120San": 17,
    "\u0120possibly": 17,
    "\u0120floor": 17,
    "\u0120pipes": 17,
    "member": 17,
    "sever": 17,
    "\u012033": 17,
    "\u0120factor": 17,
    "\u0120variant": 17,
    "\u0120FREE": 17,
    "\u0120HD": 17,
    "830": 17,
    "\u0120ports": 17,
    "\u0120stepping": 17,
    "\u0120WRITE": 17,
    "\u0120Also": 17,
    "\u0120\"/": 17,
    "\u0120recover": 17,
    "product": 17,
    "NK": 17,
    "\u0120RD": 17,
    "pleted": 17,
    "got": 17,
    "deg": 17,
    "Core": 17,
    "\u0120model": 17,
    "\u0120symbols": 17,
    "Double": 17,
    "Zero": 17,
    "\u0120motor": 17,
    "ory": 17,
    "phone": 17,
    "\u0120hi": 17,
    "\u0120encrypted": 17,
    "anges": 17,
    "ani": 17,
    "\u0120ACT": 17,
    "ularity": 17,
    "ride": 17,
    "Attempt": 17,
    "High": 17,
    ")\"": 17,
    "uff": 17,
    "uz": 17,
    "ln": 17,
    "protection": 17,
    "updated": 17,
    "\u0120live": 17,
    "\u0120LIM": 17,
    "custom": 17,
    "erv": 17,
    "\u0120mach": 17,
    "osing": 17,
    "rar": 17,
    "\u0120CLIENT": 17,
    "they": 17,
    "''": 17,
    "nor": 17,
    "imal": 17,
    "some": 17,
    "gha": 17,
    "prof": 17,
    "pas": 16,
    "444": 16,
    "\u0120ul": 16,
    "ination": 16,
    "\u0120Unknown": 16,
    "DCS": 16,
    "\u0120pub": 16,
    "\u0120application": 16,
    "\u0120according": 16,
    "\u0120System": 16,
    "\u0120Group": 16,
    "\u0120ar": 16,
    "\u0120execution": 16,
    "drops": 16,
    "\u0120rpm": 16,
    "BW": 16,
    "Country": 16,
    "\u012017": 16,
    "\u0120units": 16,
    "\u0120destination": 16,
    "home": 16,
    "\u0120preferred": 16,
    "\u0120),": 16,
    "\u0120Even": 16,
    "Listen": 16,
    "Full": 16,
    "\u0120paranoia": 16,
    "Sleep": 16,
    "\u0120software": 16,
    "\u0120levels": 16,
    "On": 16,
    "\u0120mg": 16,
    "\u0120thrott": 16,
    "\u0120happens": 16,
    "CAN": 16,
    "\u0120goes": 16,
    "\u0120PG": 16,
    "\u0120marked": 16,
    "cold": 16,
    "\u0120potential": 16,
    "\u0120made": 16,
    "ality": 16,
    "groups": 16,
    "\u0120Take": 16,
    "\u0120Wake": 16,
    "\u0120freeing": 16,
    "\u0120reduced": 16,
    "\u0120processor": 16,
    "ATIVE": 16,
    "wb": 16,
    "ug": 16,
    "\u0120rates": 16,
    "ter": 16,
    "ication": 16,
    "Del": 16,
    "IFIC": 16,
    "\u0120repeat": 16,
    "\u0120\"<": 16,
    "jack": 16,
    "\u0120states": 16,
    "\u0120consistent": 16,
    "uristic": 16,
    "\u0120drain": 16,
    "\u0120CAP": 16,
    "\u0120filled": 16,
    "apsed": 16,
    "\u0120bottom": 16,
    "\u0120Bottom": 16,
    "\u0120mi": 16,
    "\u012080": 16,
    "\u0120sample": 16,
    "\u0120listening": 16,
    "\u0120BR": 16,
    "\u0120locking": 16,
    "\u0120Out": 16,
    "\u0120secure": 16,
    "\u0120parity": 16,
    "ames": 16,
    "izer": 16,
    "\u0120indices": 16,
    "\u0120come": 16,
    "\u0120chars": 16,
    "inary": 16,
    "Attach": 16,
    "\u0120implemented": 16,
    "\u0120Mod": 16,
    "\u0120writes": 16,
    "\u0120elements": 16,
    "\u0120transc": 16,
    "train": 16,
    "GPU": 16,
    "\u0120Reg": 16,
    "PIN": 16,
    "\u0120ss": 16,
    "ution": 16,
    "\u0120DM": 16,
    "PRES": 16,
    "\u0120matches": 16,
    "\u0120claim": 16,
    "GU": 16,
    "tic": 16,
    "big": 16,
    "proxy": 16,
    "oud": 16,
    "ritten": 16,
    "\u0120exec": 16,
    "Method": 16,
    "mu": 16,
    "cell": 16,
    "COR": 16,
    "\u0120Output": 16,
    "\u0120literal": 16,
    "agate": 16,
    "ging": 16,
    "kas": 16,
    "pause": 16,
    "gran": 16,
    "\u0120PASS": 16,
    "FTWARE": 16,
    "wh": 16,
    "bring": 16,
    "\u0120tf": 16,
    "template": 16,
    "kn": 16,
    "side": 16,
    "\u0120NON": 16,
    "lights": 16,
    "orn": 16,
    "\u0120dd": 16,
    "username": 16,
    "collect": 16,
    "lement": 16,
    "\u0120decode": 16,
    "lean": 16,
    "=\\\"": 16,
    "Qu": 16,
    "eries": 16,
    "conservative": 16,
    "Bar": 16,
    "rored": 16,
    "scene": 16,
    "\u0120##": 16,
    "\u0120repl": 16,
    "Typ": 16,
    "\u0120RL": 16,
    "\u0120displacement": 16,
    "\u0120amd": 16,
    "\u0120MW": 16,
    "888": 15,
    "ta": 15,
    "ISS": 15,
    "\u0120unexpected": 15,
    "\u0120app": 15,
    "IDs": 15,
    "owned": 15,
    "OSP": 15,
    "\u012027": 15,
    "\u0120backing": 15,
    "\u0120fraction": 15,
    "frac": 15,
    "At": 15,
    "\u0120referenced": 15,
    "quire": 15,
    "\u0120span": 15,
    "By": 15,
    "\u0120working": 15,
    "ures": 15,
    "\u0120finished": 15,
    "\u0120operations": 15,
    "386": 15,
    "Need": 15,
    "KR": 15,
    "Look": 15,
    "Fast": 15,
    "\u0120Zero": 15,
    "\u0120SPACE": 15,
    "digit": 15,
    "\u0120separ": 15,
    "Session": 15,
    "\u0120wireless": 15,
    "\u0120monitor": 15,
    "\u0120disconnected": 15,
    "\u0120logic": 15,
    "\u0120structures": 15,
    "\u0120Core": 15,
    "\u0120IT": 15,
    "\u0120watchdog": 15,
    "\u0120someone": 15,
    "\u0120stall": 15,
    "\u0120By": 15,
    "\u0120masks": 15,
    "APD": 15,
    "\u0120gcc": 15,
    "\u0120relative": 15,
    "\u0120gone": 15,
    "\u0120assuming": 15,
    "OTT": 15,
    "\u0120safely": 15,
    "urs": 15,
    "\u0120unm": 15,
    "66": 15,
    "39": 15,
    "109": 15,
    "\u0120effect": 15,
    "\u0120commit": 15,
    "relative": 15,
    "\u01204096": 15,
    "Des": 15,
    "hit": 15,
    "\u0120append": 15,
    "ill": 15,
    "\u0120pal": 15,
    "\u0120Failure": 15,
    "Display": 15,
    "Dir": 15,
    "\u0120allows": 15,
    "ECH": 15,
    "\u0120That": 15,
    "\u0120UI": 15,
    "sth": 15,
    "acing": 15,
    "\u0120Restore": 15,
    "alert": 15,
    "ope": 15,
    "\u0120Top": 15,
    "\u0120Neg": 15,
    "tn": 15,
    "regate": 15,
    "OSED": 15,
    "iable": 15,
    "\u0120rese": 15,
    "basic": 15,
    "\u0120screen": 15,
    "\u0120layout": 15,
    "pling": 15,
    "floor": 15,
    "\u0120sort": 15,
    "\u012036": 15,
    "\u0120LONG": 15,
    "notice": 15,
    "\u0120mk": 15,
    "date": 15,
    "directory": 15,
    "\u0120rand": 15,
    "cert": 15,
    "\u0120password": 15,
    "jump": 15,
    "Args": 15,
    "maps": 15,
    "standard": 15,
    "\u0120Disc": 15,
    "FN": 15,
    "63": 15,
    "cess": 15,
    "\u0120hor": 15,
    "Rec": 15,
    "LIB": 15,
    "\u0120couldn": 15,
    "\u0120lo": 15,
    "\u0120GPU": 15,
    "\u0120killed": 15,
    "miss": 15,
    "\u0120Turn": 15,
    "pread": 15,
    "Using": 15,
    "\u0120Port": 15,
    "EGIN": 15,
    "\u0120undefined": 15,
    "FUL": 15,
    "azy": 15,
    "AE": 15,
    "\u0120ax": 15,
    "ITED": 15,
    "\u0120MAG": 15,
    "digital": 15,
    "agn": 15,
    "TED": 15,
    "compatible": 15,
    "\u0120unw": 15,
    "\u0120minus": 15,
    "DEP": 15,
    "filled": 15,
    "\u0120regular": 15,
    "\u0120additional": 15,
    "place": 15,
    "Generic": 15,
    "Sl": 15,
    "include": 15,
    "eral": 15,
    "OY": 15,
    "Sign": 15,
    "processing": 15,
    "opal": 15,
    "ests": 15,
    "\u0120Select": 15,
    "Comm": 15,
    "aging": 15,
    "\u0120quant": 15,
    "\u0120props": 15,
    "WW": 15,
    "inx": 15,
    "Sec": 15,
    "\u0120Poll": 15,
    "saw": 15,
    "yp": 15,
    "\u0120lights": 15,
    "\u0120sit": 15,
    "\u0120MOD": 15,
    "eligible": 15,
    "\u0120sch": 15,
    "amph": 15,
    "[_": 15,
    "APS": 15,
    "hyper": 15,
    "Model": 15,
    "ours": 15,
    "\u0120centers": 15,
    "\u0120poster": 15,
    "distance": 15,
    "HB": 15,
    "gnu": 15,
    "MER": 15,
    "atum": 15,
    "\u0120GRE": 15,
    "Playing": 15,
    "\u0120crash": 14,
    "OSH": 14,
    "\u0120Version": 14,
    "\u0120listen": 14,
    "MK": 14,
    "\u0120begin": 14,
    "\u0120peek": 14,
    "\u0120unf": 14,
    "\u0120bucket": 14,
    "coll": 14,
    "\u0120gamma": 14,
    "\u0120entering": 14,
    "cli": 14,
    "\u0120explicitly": 14,
    "\u0120linear": 14,
    "\u0120require": 14,
    "\u0120happy": 14,
    "\u0120updating": 14,
    "\u0120Here": 14,
    "\u0120Op": 14,
    "owed": 14,
    "\u012000": 14,
    "\u0120proceed": 14,
    "\u0120Values": 14,
    "AMA": 14,
    "higher": 14,
    "\u0120potentially": 14,
    "Only": 14,
    "\u0120recon": 14,
    "figure": 14,
    "currency": 14,
    "essions": 14,
    "\u0120returning": 14,
    "\u0120fully": 14,
    "\u0120database": 14,
    "\u0120Force": 14,
    "unch": 14,
    "\u0120three": 14,
    "appings": 14,
    "\u0120increment": 14,
    "shot": 14,
    "\u0120limits": 14,
    "tions": 14,
    "\u0120likely": 14,
    "\u0120targets": 14,
    "\u0120chance": 14,
    "\u0120requ": 14,
    "\u0120After": 14,
    "see": 14,
    "\u0120unlikely": 14,
    "Bad": 14,
    "399": 14,
    "509": 14,
    "\u0120parallel": 14,
    "minimum": 14,
    "\u0120RSS": 14,
    "DD": 14,
    "Access": 14,
    "maximum": 14,
    "\u0120Store": 14,
    "\u0120THIS": 14,
    "App": 14,
    "powers": 14,
    "\u0120They": 14,
    "theme": 14,
    "ipe": 14,
    "\u0120ROM": 14,
    "wrap": 14,
    "\u0120incompatible": 14,
    "ocking": 14,
    "\u0120algorithm": 14,
    "\u0120AB": 14,
    "\u0120pool": 14,
    "Platform": 14,
    "\u0120Log": 14,
    "\u0120stuff": 14,
    "\u0120simply": 14,
    "\u0120li": 14,
    "icked": 14,
    "\u0120content": 14,
    "\u0120translate": 14,
    "\u0120ticks": 14,
    "\u0120Res": 14,
    "chron": 14,
    "\u0120names": 14,
    "Final": 14,
    "amel": 14,
    "\u0120sense": 14,
    "\u0120late": 14,
    "incre": 14,
    "Short": 14,
    "\u0120POST": 14,
    "ices": 14,
    "\u0120vert": 14,
    "RIPT": 14,
    "\u0120major": 14,
    "\u0120Int": 14,
    "\u0120extension": 14,
    "pine": 14,
    "\u0120assertion": 14,
    "EA": 14,
    "\u0120parser": 14,
    "\u0120CP": 14,
    "\u0120PROC": 14,
    "\u0120tracing": 14,
    "advertising": 14,
    "asts": 14,
    "\u0120BAT": 14,
    "\u0120walk": 14,
    "WARD": 14,
    "\u0120posted": 14,
    "\u0120credits": 14,
    "\u0120Multi": 14,
    "omp": 14,
    "\u0120gain": 14,
    "\u0120reservation": 14,
    "\u0120metadata": 14,
    "\u0120ceiling": 14,
    "kun": 14,
    "inct": 14,
    "\u0120routing": 14,
    "ku": 14,
    "JS": 14,
    "ctor": 14,
    "\u0120Red": 14,
    "ote": 14,
    "lag": 14,
    "\u0120lengths": 14,
    "ads": 14,
    "\u0120resp": 14,
    "dial": 14,
    "\u0120Path": 14,
    "\u0120clusters": 14,
    "None": 14,
    "\u0120terminate": 14,
    "\u0120prox": 14,
    "Password": 14,
    "olved": 14,
    "84": 14,
    "Looking": 14,
    "ond": 14,
    "\u0120EB": 14,
    "\u0120ASIC": 14,
    "Sy": 14,
    "\",\"": 14,
    "\u0120\"+": 14,
    "nice": 14,
    "BOOK": 14,
    "Input": 14,
    "url": 14,
    "\u0120ESP": 14,
    "Label": 14,
    "\u0120associations": 14,
    "lated": 14,
    "gon": 14,
    "Sur": 14,
    "\u0120hooks": 14,
    "swe": 14,
    "oca": 14,
    "ibraries": 14,
    "\u0120language": 14,
    "\u0120GB": 14,
    "\u0120lid": 14,
    "UTION": 13,
    "\u0120LP": 13,
    "\u0120calculated": 13,
    "hor": 13,
    "180": 13,
    "\u0120hang": 13,
    "\u0120desired": 13,
    "UNE": 13,
    "\u0120En": 13,
    "\u0120vi": 13,
    "\u0120TIME": 13,
    "\u0120Fl": 13,
    "\u0120processed": 13,
    "authent": 13,
    "\u0120alive": 13,
    "going": 13,
    "\u0120ne": 13,
    "\u0120increase": 13,
    "imum": 13,
    "surface": 13,
    "omic": 13,
    "\u0120behaviour": 13,
    "within": 13,
    "Syn": 13,
    "\u0120Work": 13,
    "\u0120New": 13,
    "\u0120Success": 13,
    "iced": 13,
    "\u0120terms": 13,
    "Diff": 13,
    "\u0120hence": 13,
    "\u012026": 13,
    "\u0120home": 13,
    "\u0120contain": 13,
    "\u0120Que": 13,
    "\u0120cancel": 13,
    "Auto": 13,
    "\u0120multic": 13,
    "Pass": 13,
    "\u0120scans": 13,
    "\u0120turned": 13,
    "\u0120subsystem": 13,
    "\u0120upon": 13,
    "\u0120Currently": 13,
    "\u0120Gener": 13,
    "\u0120TIM": 13,
    "\u0120comes": 13,
    "\u0120isolated": 13,
    "arge": 13,
    "\u0120clearing": 13,
    "ced": 13,
    "\u0120immediate": 13,
    "\u0120impossible": 13,
    "\u0120storage": 13,
    "isol": 13,
    "\u0120Because": 13,
    "\u0120Look": 13,
    "erred": 13,
    "her": 13,
    "flows": 13,
    "95": 13,
    "960": 13,
    "\u0120VT": 13,
    "\u0120succeeded": 13,
    "\u0120authentication": 13,
    "Summary": 13,
    "Ent": 13,
    "\u0120Status": 13,
    "press": 13,
    "alled": 13,
    "Que": 13,
    "ales": 13,
    "\u0120broadcast": 13,
    "\u0120anymore": 13,
    "starting": 13,
    "\u0120center": 13,
    "\u0120---": 13,
    "\u0120Each": 13,
    "death": 13,
    "\u0120assigned": 13,
    "\u0120Speaker": 13,
    "\u0120pop": 13,
    "\u0120del": 13,
    "\u0120override": 13,
    "\u0120mul": 13,
    "\u0120critical": 13,
    "\u0120provide": 13,
    "\u0120corrupted": 13,
    "\u012023": 13,
    "\u0120decrypt": 13,
    "roller": 13,
    "\u0120weight": 13,
    "\u0120dist": 13,
    "\u0120install": 13,
    "lee": 13,
    "\u0120boosted": 13,
    "\u0120planes": 13,
    "\u0120general": 13,
    "\u0120File": 13,
    "\u0120meth": 13,
    "sha": 13,
    "\u0120thing": 13,
    "\u012099": 13,
    "dar": 13,
    "\u0120unsupported": 13,
    "ATURES": 13,
    "\u0120chunks": 13,
    "MHz": 13,
    "\u0120dual": 13,
    "ously": 13,
    "\u0120mandatory": 13,
    "\u0120coefficients": 13,
    "\u0120Walk": 13,
    "KA": 13,
    "\u0120far": 13,
    "\u0120perf": 13,
    "onic": 13,
    "px": 13,
    "\u0120hasn": 13,
    "position": 13,
    "imm": 13,
    "IPS": 13,
    "\u0120sack": 13,
    "\u0120rebuild": 13,
    "fully": 13,
    "\u0120analog": 13,
    "\u0120ranges": 13,
    "\u0120samples": 13,
    "\u0120fingers": 13,
    "\u0120expect": 13,
    "\u0120ce": 13,
    "\u0120taken": 13,
    "\u0120MAP": 13,
    "ense": 13,
    "\u0120sectors": 13,
    "\u0120KM": 13,
    "stri": 13,
    ",-": 13,
    "\u0120generating": 13,
    "\u0120datas": 13,
    "\u0120overw": 13,
    "\u0120remainder": 13,
    "\u0120reached": 13,
    "ruction": 13,
    "Il": 13,
    "legal": 13,
    "OPE": 13,
    "eds": 13,
    "DEM": 13,
    "\u0120sections": 13,
    "ZE": 13,
    "\u0120fake": 13,
    "ounded": 13,
    ";\"": 13,
    "aic": 13,
    "SHARE": 13,
    "\u0120pers": 13,
    "outer": 13,
    "ari": 13,
    "=>": 13,
    "Output": 13,
    "strument": 13,
    "obby": 13,
    "\u0120CO": 13,
    "Run": 13,
    "onen": 13,
    "little": 13,
    "\u0120VIDEO": 13,
    "ances": 13,
    "\u0120Initi": 13,
    "medium": 13,
    "ulus": 13,
    "\u0120merged": 12,
    "\u0120transmission": 12,
    "\u0120charger": 12,
    "ffic": 12,
    "\u0120related": 12,
    "\u0120Fast": 12,
    "JO": 12,
    "\u0120uh": 12,
    "\u0120dont": 12,
    "FI": 12,
    "plan": 12,
    "\u0120green": 12,
    "\u0120blue": 12,
    "\u0120\"_": 12,
    "\u0120import": 12,
    "\u0120management": 12,
    "\u0120Scan": 12,
    "loading": 12,
    "\u0120Info": 12,
    "\u0120haven": 12,
    "\u0120underlying": 12,
    "\u0120signaling": 12,
    "\u0120Ad": 12,
    "\u0120implies": 12,
    "\u0120outstanding": 12,
    "\u0120Hence": 12,
    "\u0120expectation": 12,
    "\u0120Destroy": 12,
    "\u0120modules": 12,
    "\u0120Then": 12,
    "eat": 12,
    "\u0120entire": 12,
    "\u0120Pre": 12,
    "\u0120inv": 12,
    "\u0120provides": 12,
    "\u0120grab": 12,
    "\u0120activate": 12,
    "\u0120counts": 12,
    "\u0120BD": 12,
    "ally": 12,
    "\u0120become": 12,
    "\u0120hack": 12,
    "\u0120age": 12,
    "\u0120contiguous": 12,
    "\u0120met": 12,
    "iate": 12,
    "\u0120Tell": 12,
    "\u0120processors": 12,
    "\u0120ii": 12,
    "AA": 12,
    "57": 12,
    "69": 12,
    "77": 12,
    "59": 12,
    "\u0120flash": 12,
    "ELY": 12,
    "CENT": 12,
    "android": 12,
    "\u0120guess": 12,
    "\u0120profile": 12,
    "Finish": 12,
    "\u0120fr": 12,
    "\u0120include": 12,
    "wire": 12,
    "\u0120ADD": 12,
    "Press": 12,
    "Completed": 12,
    "\u0120clients": 12,
    "\u0120Next": 12,
    "\u0120ourselves": 12,
    "\u0120Length": 12,
    "\u0120implement": 12,
    "tering": 12,
    "\u0120timers": 12,
    "\u0120transition": 12,
    "\u0120LO": 12,
    "</": 12,
    "ander": 12,
    "aid": 12,
    "ockets": 12,
    "\u0120why": 12,
    "\u0120spl": 12,
    "\u0120advertise": 12,
    "\u0120looks": 12,
    "\u0120unh": 12,
    "\u0120EST": 12,
    "inations": 12,
    "\u0120acquire": 12,
    "problem": 12,
    "uffs": 12,
    "\u0120hint": 12,
    "\u0120throw": 12,
    "\u0120issues": 12,
    "\u0120wrap": 12,
    "bat": 12,
    "translation": 12,
    "\u0120beyond": 12,
    "ounce": 12,
    "\u0120binding": 12,
    "\u0120battery": 12,
    "\u0120exiting": 12,
    "year": 12,
    "\u0120leading": 12,
    "irl": 12,
    "\u0120fun": 12,
    "Interface": 12,
    "\u0120fork": 12,
    "ple": 12,
    "Fixed": 12,
    "\u0120faces": 12,
    "writing": 12,
    "\u0120alpha": 12,
    "\u0120mon": 12,
    "\u0120Shift": 12,
    "\u0120none": 12,
    "Usage": 12,
    "\u0120HDMI": 12,
    "\u0120tags": 12,
    "\u0120modify": 12,
    "\u0120workaround": 12,
    "\u0120IV": 12,
    "gm": 12,
    "\u0120Over": 12,
    "\u0120ed": 12,
    "\u0120oct": 12,
    "\u0120reuse": 12,
    "\u0120CN": 12,
    "\u0120MK": 12,
    "repl": 12,
    "\u0120watch": 12,
    "otiation": 12,
    "\u0120Desc": 12,
    "\u0120cards": 12,
    "\u0120DAC": 12,
    "\u0120MN": 12,
    "\u0120ay": 12,
    "icing": 12,
    "GW": 12,
    "\u0120PROT": 12,
    "Sk": 12,
    "\u0120EAR": 12,
    "\u0120MID": 12,
    "outing": 12,
    "\u0120FR": 12,
    "\u0120burst": 12,
    "account": 12,
    "ISM": 12,
    "\u0120encoded": 12,
    "\u0120dig": 12,
    "allel": 12,
    "\u0120arbitrary": 12,
    "walker": 12,
    "\u0120salt": 12,
    "ogle": 12,
    "lab": 12,
    "oret": 12,
    "\u0120hid": 12,
    "Norm": 12,
    "Resp": 12,
    "\u0120removal": 12,
    "generation": 12,
    "category": 12,
    "BILITY": 12,
    ":[": 12,
    "------------": 12,
    "cale": 12,
    "NY": 12,
    "\u0120HA": 12,
    "changes": 12,
    "\u0120dy": 12,
    "LOS": 12,
    "ensen": 12,
    "\u0120hose": 12,
    "iat": 12,
    "ade": 12,
    "Det": 12,
    "\u0120smart": 12,
    "nw": 12,
    "\u0120\"@": 12,
    "\u0120CIS": 12,
    "CDC": 12,
    "Wide": 12,
    "ights": 12,
    "Cod": 12,
    "ons": 12,
    "\u0120AH": 12,
    "\u0120COP": 12,
    "\u0120Response": 12,
    "Plugin": 12,
    "agen": 12,
    "====": 12,
    "ris": 12,
    "bas": 12,
    "\u0120xp": 12,
    "Textures": 12,
    "Plan": 12,
    "Visual": 12,
    "\u0120deprecated": 12,
    "come": 12,
    "crop": 12,
    "ges": 12,
    "\u0120blob": 12,
    "intern": 12,
    "\u0120``": 12,
    "aching": 12,
    "\u0120attachment": 12,
    "\u0120AMD": 12,
    "\u0120cand": 12,
    "ift": 12,
    "205": 12,
    "Discover": 12,
    "\u0120Sound": 12,
    "trip": 12,
    "\u0120blocked": 11,
    "\u0120]": 11,
    "\u012070": 11,
    "\u0120switching": 11,
    "\u0120tim": 11,
    "\u0120Wrong": 11,
    "\u0120creating": 11,
    "atched": 11,
    "\"(": 11,
    "\u0120Too": 11,
    "\u0120coverage": 11,
    "MORE": 11,
    "510": 11,
    "ova": 11,
    "bps": 11,
    "ering": 11,
    "\u0120prim": 11,
    "\u0120export": 11,
    "\u0120overr": 11,
    "ides": 11,
    "\u0120went": 11,
    "Oper": 11,
    "Rev": 11,
    "ision": 11,
    "\u0120SAP": 11,
    "\u0120operating": 11,
    "\u0120digits": 11,
    "\u0120example": 11,
    "ushing": 11,
    "uled": 11,
    "\u0120Connect": 11,
    "\u0120reclaimed": 11,
    "Im": 11,
    "\u0120Go": 11,
    "\u0120Full": 11,
    "\u0120changing": 11,
    "Work": 11,
    "\u0120consumed": 11,
    "Loop": 11,
    "\u0120LI": 11,
    "Cap": 11,
    "abl": 11,
    "\u0120Clock": 11,
    "ener": 11,
    "\u0120replace": 11,
    "\u0120Driver": 11,
    "\u0120purposes": 11,
    "\u0120built": 11,
    "\u0120Avoid": 11,
    "\u0120Must": 11,
    "\u0120escape": 11,
    "\u0120recovered": 11,
    "backed": 11,
    "\u0120Verify": 11,
    "\u0120reasons": 11,
    "oved": 11,
    "\u0120die": 11,
    "\u0120plus": 11,
    "\u0120bother": 11,
    "\u0120cost": 11,
    "\u0120depending": 11,
    "\u0120works": 11,
    "\u0120bypass": 11,
    "\u0120forward": 11,
    "\u0120balanced": 11,
    "\u0120normally": 11,
    "\u0120mean": 11,
    "\u0120linux": 11,
    "97": 11,
    ")!": 11,
    "nn": 11,
    "\u0120assumed": 11,
    "\u0120established": 11,
    ".)": 11,
    "\u0120Class": 11,
    "\u0120encode": 11,
    "\u0120Configuration": 11,
    "Low": 11,
    "exist": 11,
    "\u0120ignoring": 11,
    "opp": 11,
    "sur": 11,
    "\u0120Mult": 11,
    "\u0120Passed": 11,
    "title": 11,
    "\u0120Internal": 11,
    "\u0120Ok": 11,
    "\u0120Where": 11,
    "\u0120Super": 11,
    "\u0120useless": 11,
    "\u0120Have": 11,
    ".,": 11,
    "\u0120elapsed": 11,
    "ato": 11,
    "Hash": 11,
    "\u0120Ampl": 11,
    "TON": 11,
    "EH": 11,
    "uation": 11,
    "\u0120Control": 11,
    "\u0120populated": 11,
    "\u0120Fall": 11,
    "\u0120Remote": 11,
    "\u0120Drop": 11,
    "seek": 11,
    "410": 11,
    "\u0120NAT": 11,
    "ined": 11,
    "\u0120custom": 11,
    "content": 11,
    "!!!!": 11,
    "xy": 11,
    "toggle": 11,
    "\u0120neg": 11,
    "results": 11,
    "\u0120Always": 11,
    "\u0120standard": 11,
    "\u0120extract": 11,
    "\u0120compiler": 11,
    "\u0120pixels": 11,
    "CHR": 11,
    "127": 11,
    "AMES": 11,
    "\u0120uncomp": 11,
    "\u0120variables": 11,
    "ates": 11,
    "forms": 11,
    "istry": 11,
    "ACY": 11,
    "\u0120sandy": 11,
    "ivid": 11,
    "\u0120automatically": 11,
    "upt": 11,
    "\u0120Al": 11,
    "creat": 11,
    "\u0120across": 11,
    "ITAL": 11,
    "bing": 11,
    "\u0120energy": 11,
    "\u0120earlier": 11,
    "\u0120MSI": 11,
    "=/": 11,
    "\u0120anywhere": 11,
    "\u0120catch": 11,
    "lex": 11,
    "Own": 11,
    "ulation": 11,
    "handled": 11,
    "ber": 11,
    "\u0120translation": 11,
    "ically": 11,
    "\u0120supply": 11,
    "WOR": 11,
    "apt": 11,
    "\u0120pres": 11,
    "\u0120credit": 11,
    "\u0120fragmentation": 11,
    "BLIC": 11,
    "755": 11,
    "View": 11,
    "\u0120Will": 11,
    "abb": 11,
    "rip": 11,
    "\u0120resid": 11,
    "voice": 11,
    "\u0120deliver": 11,
    "reed": 11,
    "cow": 11,
    "\u0120annot": 11,
    "Dec": 11,
    "\u0120iterations": 11,
    "Vi": 11,
    "\u0120job": 11,
    "\u0120combination": 11,
    "ursive": 11,
    "\u0120compound": 11,
    "rites": 11,
    "\u0120Release": 11,
    "etric": 11,
    "\u0120NOR": 11,
    "\u0120signaled": 11,
    "ARS": 11,
    "raid": 11,
    "rou": 11,
    "\u0120rev": 11,
    "\u0120CTRL": 11,
    "\u0120END": 11,
    "CRIP": 11,
    "mail": 11,
    "\u0120ARE": 11,
    "LLOW": 11,
    "efined": 11,
    "\u0120ACC": 11,
    "foo": 11,
    "news": 11,
    "angel": 11,
    "binding": 11,
    "1500": 11,
    "bay": 11,
    "cover": 11,
    "\u0120pregn": 11,
    "termination": 11,
    "\u0120modifier": 11,
    "\u0120batches": 11,
    "Rect": 11,
    "\u0120stre": 11,
    "Ms": 11,
    "rieve": 11,
    "\u0120TA": 11,
    "\u0120ow": 11,
    "oad": 11,
    "\u0120ACTION": 11,
    "Push": 11,
    "aper": 11,
    "idents": 11,
    "\u0120SAT": 11,
    "\u0120outs": 11,
    "notes": 11,
    "\u0120prints": 11,
    "Runtime": 11,
    "\u0120trad": 11,
    "eners": 11,
    "\u0120Portal": 11,
    "usable": 11,
    "389": 11,
    "\u0120IOC": 11,
    "uo": 11,
    "hall": 11,
    "\u0120unic": 10,
    "666": 10,
    "\u0120cycle": 10,
    "\u0120Ph": 10,
    "ahead": 10,
    "cle": 10,
    "\u0120overwrite": 10,
    "\u0120evict": 10,
    "coming": 10,
    "\u0120MUST": 10,
    "Line": 10,
    "ALTH": 10,
    "ufficient": 10,
    "NPR": 10,
    "ROR": 10,
    "ork": 10,
    "roll": 10,
    "\u0120matter": 10,
    "management": 10,
    "\u0120references": 10,
    "Chan": 10,
    "\u0120making": 10,
    "\u0120individual": 10,
    "\u0120opened": 10,
    "Exit": 10,
    "\u0120Tim": 10,
    "\u0120protect": 10,
    "\u0120Interface": 10,
    "\u0120Ind": 10,
    "\u0120soon": 10,
    "\u0120invoked": 10,
    "\u0120concern": 10,
    "\u0120verified": 10,
    "uffer": 10,
    "\u0120Sched": 10,
    "\u0120happened": 10,
    "5000": 10,
    "\u0120kick": 10,
    "\u0120Mask": 10,
    "\u0120turning": 10,
    "Do": 10,
    "Dest": 10,
    "\u0120careful": 10,
    "zing": 10,
    "CU": 10,
    "eren": 10,
    "\u0120spare": 10,
    "\u0120trip": 10,
    "\u0120testing": 10,
    "ball": 10,
    "heads": 10,
    "\u0120lots": 10,
    "\u0120Count": 10,
    "appiness": 10,
    "\u0120With": 10,
    "\u0120Limit": 10,
    "\u0120huge": 10,
    "\u0120nice": 10,
    "ald": 10,
    "\u0120unus": 10,
    "\u0120Instead": 10,
    "\u0120highest": 10,
    "\u0120prevents": 10,
    "mentation": 10,
    "\u0120entered": 10,
    "213": 10,
    "56": 10,
    "110": 10,
    "78": 10,
    "\u0120RB": 10,
    "\u0120termination": 10,
    "\u0120FRE": 10,
    "note": 10,
    "\u0120/**": 10,
    "\u0120deep": 10,
    "\u0120Mic": 10,
    "orrect": 10,
    "\u01205000": 10,
    "Ps": 10,
    "\u0120AUTH": 10,
    "\u0120MIC": 10,
    "\u0120Fil": 10,
    "\u0120few": 10,
    "Warning": 10,
    "JUST": 10,
    "\u0120NC": 10,
    "dragon": 10,
    "\u0120Process": 10,
    "\u0120According": 10,
    "\u0120Special": 10,
    "\u0120adj": 10,
    "our": 10,
    "established": 10,
    "\u0120Pos": 10,
    "BUT": 10,
    "\u012068": 10,
    "\u0120Cl": 10,
    "\u0120Adjust": 10,
    "\u0120responses": 10,
    ":/": 10,
    "\u0120latter": 10,
    "etime": 10,
    "rer": 10,
    "\u0120bar": 10,
    "\u0120dialog": 10,
    "Widget": 10,
    "aped": 10,
    "\u0120define": 10,
    "escape": 10,
    "\u0120Run": 10,
    "\u0120boost": 10,
    "\u0120freezer": 10,
    "tracking": 10,
    "\u0120exclusive": 10,
    "-'": 10,
    "\u0120SEN": 10,
    "\u0120systems": 10,
    "\u0120optimization": 10,
    "\u0120FOR": 10,
    "Gener": 10,
    "\u0120easy": 10,
    "\u0120jump": 10,
    "\u0120vector": 10,
    "ruct": 10,
    "\u0120127": 10,
    "\u0120lib": 10,
    "formed": 10,
    "\u0120arrays": 10,
    "uns": 10,
    "most": 10,
    "\u0120skipped": 10,
    "\u0120Give": 10,
    "\u0120usually": 10,
    "\u0120adds": 10,
    "\u0120flip": 10,
    "\u0120IPS": 10,
    "PB": 10,
    "\u0120subset": 10,
    "\u0120relax": 10,
    "anc": 10,
    "\u0120nearest": 10,
    "\u0120owner": 10,
    "\u0120Flow": 10,
    "\u0120descript": 10,
    "\u0120however": 10,
    "\u0120Probe": 10,
    "OUGH": 10,
    "\u0120nib": 10,
    "MN": 10,
    "fing": 10,
    "WAR": 10,
    "detail": 10,
    "fam": 10,
    "BSD": 10,
    "\u0120whose": 10,
    "\u0120indent": 10,
    "json": 10,
    "\u0120AG": 10,
    "agi": 10,
    "ised": 10,
    "grow": 10,
    "\u0120phase": 10,
    "\u0120unavailable": 10,
    "leases": 10,
    "Random": 10,
    "ntax": 10,
    "\u012042": 10,
    "bread": 10,
    "\u0120Oct": 10,
    "ERG": 10,
    "\u0120alt": 10,
    "\u0120caches": 10,
    "prom": 10,
    "\u0120acc": 10,
    "\u0120SPR": 10,
    "ores": 10,
    "\u0120Prevent": 10,
    "\u0120receiving": 10,
    "circ": 10,
    "during": 10,
    "Struct": 10,
    "\u0120interrupted": 10,
    "\u0120coefficient": 10,
    "\u0120act": 10,
    "\u0120removing": 10,
    "IDS": 10,
    "bands": 10,
    "\u0120upt": 10,
    "aded": 10,
    "\u0120blank": 10,
    "lux": 10,
    "\u0120locals": 10,
    "creator": 10,
    "Store": 10,
    "\u0120rh": 10,
    "argument": 10,
    "\u0120org": 10,
    "My": 10,
    "Ep": 10,
    "\u0120dx": 10,
    "cum": 10,
    "iblings": 10,
    "\u0120EDIT": 10,
    "ported": 10,
    "itt": 10,
    "\u0120Standard": 10,
    "gone": 10,
    "construct": 10,
    "\u0120lif": 10,
    "Function": 10,
    "Tree": 10,
    "\u0120Issue": 10,
    "\u0120hosts": 10,
    "\u0120cell": 10,
    "\u0120..": 10,
    "\u0120rounded": 10,
    "asters": 10,
    "Boo": 10,
    "stant": 10,
    "Cover": 10,
    "Choose": 10,
    "\u0120suitable": 10,
    "\u0120tune": 10,
    "lit": 10,
    "\u0120Green": 10,
    "\u0120Blue": 10,
    "ubs": 10,
    "\u0120cob": 10,
    "\u0120lac": 10,
    "holes": 10,
    "\u0120prof": 10,
    "/>": 10,
    "Available": 10,
    "\u0120Any": 9,
    "pport": 9,
    "urred": 9,
    "\u0120sized": 9,
    "\u0120till": 9,
    "Call": 9,
    "olar": 9,
    "Bit": 9,
    "\u0120Ins": 9,
    "\u0120creation": 9,
    "\u0120rely": 9,
    "\u01201500": 9,
    "\u0120calc": 9,
    "ocations": 9,
    "And": 9,
    "\u0120passes": 9,
    "\u0120choice": 9,
    "\u0120Context": 9,
    "Ph": 9,
    "\u0120whites": 9,
    "\u0120exceeded": 9,
    "well": 9,
    "Fre": 9,
    "29": 9,
    "ula": 9,
    "\u0120extensions": 9,
    "\u0120adapters": 9,
    "Fail": 9,
    "\u012010000": 9,
    "\u0120activities": 9,
    "\u0120lowest": 9,
    "\u0120others": 9,
    "\u0120branches": 9,
    "\u0120Load": 9,
    "\u0120occur": 9,
    "ima": 9,
    "\u0120invoke": 9,
    "\u0120hints": 9,
    "\u0120UP": 9,
    "\u0120Ret": 9,
    "\u0120reach": 9,
    "\u0120worst": 9,
    "\u0120AS": 9,
    "\u0120defer": 9,
    "\u0120easily": 9,
    "\u0120Once": 9,
    "\u0120groups": 9,
    "\u0120expensive": 9,
    "omin": 9,
    "\u0120Rec": 9,
    "\u0120resulting": 9,
    "\u0120disk": 9,
    "\u0120difference": 9,
    "\u0120useful": 9,
    "\u0120gap": 9,
    "\u0120warn": 9,
    "94": 9,
    "99": 9,
    "\u0120STAT": 9,
    "\u0120Value": 9,
    "effect": 9,
    "EFF": 9,
    "white": 9,
    "\u0120wrote": 9,
    "\u0120ke": 9,
    "-->": 9,
    "53": 9,
    "opping": 9,
    "Field": 9,
    "\u0120therefore": 9,
    "\u0120TO": 9,
    "\u0120Pass": 9,
    "multiple": 9,
    "\u0120Found": 9,
    "\u0120SCH": 9,
    "saving": 9,
    "\u0120affected": 9,
    "\u0120finally": 9,
    "\u0120BIOS": 9,
    "\u0120ask": 9,
    "\u0120INTER": 9,
    "...\"": 9,
    "\u0120button": 9,
    "\u0120rom": 9,
    "\u0120Please": 9,
    "334": 9,
    "\u0120interesting": 9,
    "\u0120says": 9,
    "\u0120solution": 9,
    "\u0120bulk": 9,
    "\u0120Dec": 9,
    "\u0120older": 9,
    "thin": 9,
    "\u0120External": 9,
    "ERAL": 9,
    "IUM": 9,
    "\u0120incoming": 9,
    "original": 9,
    "\u0120cover": 9,
    "ows": 9,
    "\u0120mechanism": 9,
    "\u0120respond": 9,
    "\u0120encrypt": 9,
    "\u0120slots": 9,
    "3000": 9,
    "through": 9,
    "\u0120windows": 9,
    "\u0120properties": 9,
    "Build": 9,
    "ango": 9,
    "\u0120migration": 9,
    "\u0120sound": 9,
    "must": 9,
    "\u0120roundup": 9,
    "\u0120conv": 9,
    "\u0120Node": 9,
    "Track": 9,
    "uments": 9,
    "\u0120compressed": 9,
    "URL": 9,
    "\u0120vol": 9,
    "Vector": 9,
    "\u0120transform": 9,
    "\u0120True": 9,
    "\u0120rid": 9,
    "\u0120basic": 9,
    "isation": 9,
    "First": 9,
    "Too": 9,
    "\u0120depend": 9,
    "\u0120signature": 9,
    "\u0120Loop": 9,
    "\u0120rows": 9,
    "\u0120silently": 9,
    "ines": 9,
    "\u0120Display": 9,
    "\u0120HP": 9,
    "ither": 9,
    "\u0120cor": 9,
    "\u0120eld": 9,
    "\u012066": 9,
    "amped": 9,
    "\u0120reports": 9,
    "follow": 9,
    "\u0120moment": 9,
    "OOL": 9,
    "Ring": 9,
    "\u0120Normal": 9,
    "\u0120%%": 9,
    "\u0120macro": 9,
    "\u0120reads": 9,
    "ceiver": 9,
    "aa": 9,
    "world": 9,
    "\u0120quot": 9,
    "absolute": 9,
    "\u0120placed": 9,
    "orting": 9,
    "\u0120clone": 9,
    "\u0120semantics": 9,
    "\u0120depends": 9,
    "\u0120ATM": 9,
    "\u0120ever": 9,
    "\u0120sources": 9,
    "\u0120parsed": 9,
    "\u012056": 9,
    "\u0120Object": 9,
    "CAR": 9,
    "rim": 9,
    "\u0120AV": 9,
    "\u0120lose": 9,
    "igration": 9,
    "contin": 9,
    "\u0120becomes": 9,
    "LB": 9,
    "\u0120protection": 9,
    "urious": 9,
    "\u0120say": 9,
    "bn": 9,
    "\u0120pat": 9,
    "\u0120representation": 9,
    "pired": 9,
    "\u0120{\"": 9,
    "phrase": 9,
    "bug": 9,
    "unique": 9,
    "osc": 9,
    "340": 9,
    "\u0120suspended": 9,
    "\u0120802": 9,
    "\u0120-->": 9,
    "\u0120Huff": 9,
    "cause": 9,
    "\u0120sid": 9,
    "\u0120initi": 9,
    "\u0120iterator": 9,
    "Prot": 9,
    "\u0120WORK": 9,
    "ites": 9,
    "osed": 9,
    "PDATED": 9,
    "\u0120sect": 9,
    "lined": 9,
    "\u0120tot": 9,
    "\u0120unresolved": 9,
    "Details": 9,
    "EMOTE": 9,
    "ilar": 9,
    "mods": 9,
    "\u0120LM": 9,
    "orc": 9,
    "\u0120UT": 9,
    "\u0120MU": 9,
    "\u0120trap": 9,
    "\u0120Machine": 9,
    "\u0120arm": 9,
    "iddle": 9,
    "Cos": 9,
    "acements": 9,
    "\u0120foo": 9,
    "\u0120modifiers": 9,
    "411": 9,
    "\u0120gin": 9,
    "\u0120PTS": 9,
    "\u0120SERV": 9,
    "\u0120OT": 9,
    "ventions": 9,
    "Sum": 9,
    "\u0120caps": 9,
    "cross": 9,
    "Fr": 9,
    "ulp": 9,
    "quit": 9,
    "ursion": 9,
    "\u0120Alpha": 9,
    "deb": 9,
    "\u0120dep": 9,
    "ISTORY": 9,
    "\u0120checkpoint": 9,
    "tests": 9,
    "\u0120());": 9,
    "\u0120xml": 9,
    "\u0120marker": 9,
    "placed": 9,
    "emonic": 9,
    "\u0120outer": 9,
    "\u0120Login": 9,
    "\u0120prism": 9,
    "umers": 9,
    "\u0120Serv": 9,
    "opus": 9,
    "\u0120Low": 8,
    "\u0120ans": 8,
    "pred": 8,
    "\u0120incorrect": 8,
    "\u0120RO": 8,
    "named": 8,
    "\u0120DF": 8,
    "reading": 8,
    "kl": 8,
    "\u0120Base": 8,
    "\u0120bring": 8,
    "\u0120pref": 8,
    "\u0120SHOW": 8,
    "\u0120mism": 8,
    "\u0120SOC": 8,
    "\u0120Ign": 8,
    "\u0120role": 8,
    "ult": 8,
    "\u0120vote": 8,
    "\u0120aux": 8,
    "\u0120115": 8,
    "\u0120Firm": 8,
    "\u0120Location": 8,
    "\u0120regardless": 8,
    "\u0120Adapter": 8,
    "ful": 8,
    "\u0120implementation": 8,
    "\u0120GUI": 8,
    "\u0120regulatory": 8,
    "\u0120having": 8,
    "Pre": 8,
    "RESULTS": 8,
    "\u0120ASCII": 8,
    "ell": 8,
    "ERSON": 8,
    "\u0120flushed": 8,
    "Mon": 8,
    "\u0120actions": 8,
    "\u0120presumably": 8,
    "\u0120Susp": 8,
    "\u0120exited": 8,
    "\u0120Mac": 8,
    "\u0120treat": 8,
    "}}": 8,
    "\u0120MODULE": 8,
    "essage": 8,
    "\u0120Prepare": 8,
    "\u0120along": 8,
    "\u0120tests": 8,
    "\u0120performed": 8,
    "\u0120recently": 8,
    "\u0120quickly": 8,
    "\u0120worry": 8,
    "\u0120Be": 8,
    "\u0120elsewhere": 8,
    "\u0120completely": 8,
    "\u0120ends": 8,
    "Us": 8,
    "\u0120stopping": 8,
    "\u0120failing": 8,
    "\u0120hand": 8,
    "\u0120Continue": 8,
    "\u0120deferred": 8,
    "\u0120trouble": 8,
    "\u0120affinity": 8,
    "\u0120sleeping": 8,
    "\u0120One": 8,
    "\u0120spread": 8,
    "\u0120please": 8,
    "58": 8,
    "76": 8,
    "112": 8,
    "52": 8,
    "121": 8,
    "\u0120Last": 8,
    "UCT": 8,
    "\u0120divide": 8,
    "\u0120periodic": 8,
    "\u0120START": 8,
    "\u0120Stand": 8,
    "\u0120procedure": 8,
    "ociate": 8,
    "ceived": 8,
    "Present": 8,
    "irection": 8,
    "----------": 8,
    "://": 8,
    "\u0120Inc": 8,
    "\u0120BE": 8,
    "\u0120VI": 8,
    "Dro": 8,
    "OTH": 8,
    "\u0120exceed": 8,
    "\u0120filters": 8,
    "\u0120Trans": 8,
    "\u0120Termin": 8,
    "0002": 8,
    "adding": 8,
    "\u0120dropping": 8,
    "\u0120reboot": 8,
    "anim": 8,
    "selected": 8,
    "hide": 8,
    "\u0120Yes": 8,
    "\u0120urgent": 8,
    "actor": 8,
    "ETS": 8,
    "\u0120legal": 8,
    "mits": 8,
    "lost": 8,
    "\u0120packed": 8,
    "gy": 8,
    "\u0120connections": 8,
    "Sent": 8,
    "\u0120App": 8,
    "\u0120Complete": 8,
    "\u0120Rest": 8,
    "rupted": 8,
    "\u0120Map": 8,
    "Search": 8,
    "\u0120Got": 8,
    "istration": 8,
    "poke": 8,
    "jected": 8,
    "umption": 8,
    "ARR": 8,
    "dit": 8,
    "\u0120[-": 8,
    "\u0120Em": 8,
    "\u0120strings": 8,
    "\u0120markup": 8,
    "\u0120PAN": 8,
    "\u0120color": 8,
    "around": 8,
    "\u0120held": 8,
    "\u0120unexpectedly": 8,
    "?'": 8,
    "\u0120xen": 8,
    ")=": 8,
    "\u0120worth": 8,
    "STD": 8,
    "Dispatch": 8,
    "\u0120USE": 8,
    "hour": 8,
    "\u0120backwards": 8,
    "Zip": 8,
    "Header": 8,
    "\u0120positive": 8,
    "\u0120certain": 8,
    "\u0120vertical": 8,
    "\u0120rules": 8,
    "\u0120embedded": 8,
    "\u0120capable": 8,
    "\u0120represent": 8,
    "\u0120strike": 8,
    "erers": 8,
    "\u0120steps": 8,
    "\u0120supplied": 8,
    "Sound": 8,
    "vable": 8,
    "\u0120various": 8,
    "505": 8,
    "\u0120lane": 8,
    "lda": 8,
    "\u012029": 8,
    "\u0120=>": 8,
    "\u0120displays": 8,
    "amps": 8,
    "\u0120knows": 8,
    "\u0120GS": 8,
    "\u0120Shut": 8,
    "oir": 8,
    "\u0120nat": 8,
    "\u0120overlap": 8,
    "\u0120unnecessary": 8,
    "\u0120seems": 8,
    "\u0120PID": 8,
    "\u0120relevant": 8,
    "\u0120ent": 8,
    "???": 8,
    "\u0120demand": 8,
    "\u0120machines": 8,
    "\u0120copying": 8,
    "\u0120boundaries": 8,
    "Com": 8,
    "\u0120product": 8,
    "BAT": 8,
    "ifiers": 8,
    "\u0120Detected": 8,
    "0200": 8,
    "LET": 8,
    "\u0120gives": 8,
    "\u0120newly": 8,
    "\u0120PE": 8,
    "\u0120DO": 8,
    "\u0120quad": 8,
    "onents": 8,
    "Family": 8,
    "ilies": 8,
    "\u0120nor": 8,
    "\u0120rename": 8,
    "\u0120327": 8,
    "\u0120assumes": 8,
    "\u012001": 8,
    "air": 8,
    "clude": 8,
    "\u0120Mc": 8,
    "\u0120St": 8,
    "Digital": 8,
    "\u0120stripe": 8,
    "\u0120quota": 8,
    "ota": 8,
    "\u0120component": 8,
    "\u0120locks": 8,
    "\u0120quick": 8,
    "EMA": 8,
    "\u0120Doing": 8,
    "\u0120RPC": 8,
    "\u0120----": 8,
    "\u0120member": 8,
    "dependent": 8,
    "protect": 8,
    "\u0120secondary": 8,
    "aj": 8,
    "\u0120maybe": 8,
    "\u0120accounting": 8,
    "\u0120decre": 8,
    "\u0120executed": 8,
    "\u0120syntax": 8,
    "\u0120form": 8,
    "arse": 8,
    "\u0120HTC": 8,
    "\u0120192": 8,
    "\u0120****": 8,
    "\u0120Cipher": 8,
    "recogn": 8,
    "\u0120Param": 8,
    "\u0120date": 8,
    "\u0120edge": 8,
    "Force": 8,
    "\u0120assignment": 8,
    "positive": 8,
    "\u0120corrupt": 8,
    "\u0120Sl": 8,
    "\u0120restriction": 8,
    "ower": 8,
    "\u0120runs": 8,
    "\u0120site": 8,
    "\u0120alias": 8,
    "pir": 8,
    "\u0120LOW": 8,
    "produ": 8,
    "cer": 8,
    "\u0120wild": 8,
    "\u0120Temperature": 8,
    "qt": 8,
    "\u0120column": 8,
    "\u0120DPS": 8,
    "\u0120prod": 8,
    "issa": 8,
    "condition": 8,
    "vey": 8,
    "enna": 8,
    "iscover": 8,
    "wrapper": 8,
    "\u0120strip": 8,
    "Exp": 8,
    "\u0120micro": 8,
    "\u0120slice": 8,
    "missions": 8,
    "\u0120border": 8,
    "\u0120indexes": 8,
    "pend": 8,
    "fake": 8,
    "reported": 8,
    "steps": 8,
    "\u0120erase": 8,
    "eng": 8,
    "\u0120light": 8,
    "ger": 8,
    "akery": 8,
    "\u0120retire": 8,
    "\u0120___": 8,
    "\u0120arena": 8,
    "ulative": 8,
    "\u0120adjacent": 8,
    "\u0120mid": 8,
    "\u0120sts": 8,
    "ural": 8,
    "\u0120digest": 8,
    "\u0120PRE": 8,
    "\u0120TF": 8,
    "_(": 8,
    "XL": 8,
    "\u0120seed": 8,
    "iterator": 8,
    "din": 8,
    "uffed": 8,
    "\u0120sal": 8,
    "cos": 8,
    "\u0120Did": 8,
    "\u012044": 8,
    "Content": 8,
    "\u0120APP": 8,
    "\u0120PB": 8,
    "IRC": 8,
    "focus": 8,
    "Col": 8,
    "compl": 8,
    "\u0120ff": 8,
    "\u0120whine": 8,
    "\u0120redist": 8,
    "\u0120neighbours": 8,
    "iya": 8,
    "\u0120fund": 8,
    "fund": 8,
    "\u0120trailing": 8,
    "Distance": 8,
    "behavior": 8,
    "ka": 8,
    "Integ": 8,
    "material": 8,
    "poly": 8,
    "otropic": 8,
    "pert": 8,
    "square": 8,
    "emb": 8,
    "uracy": 8,
    "Spr": 8,
    "Gam": 8,
    "Rate": 8,
    "rating": 8,
    "dfx": 8,
    "\u0120peeled": 8,
    "gas": 8,
    "\u0120verdict": 8,
    "\u012058": 8,
    "ording": 8,
    "-$": 8,
    "\u0120tuple": 8,
    "python": 8,
    "\u0120Macro": 8,
    "released": 8,
    "urse": 8,
    "\u0120optimal": 8,
    "sels": 8,
    "gi": 8,
    "ribut": 8,
    "\u0120Processing": 8,
    "Category": 8,
    "\u0120pas": 7,
    "\u0120kickoff": 7,
    "POR": 7,
    "umed": 7,
    "\u0120important": 7,
    "ared": 7,
    "\u0120DN": 7,
    "\u0120Line": 7,
    "\u0120equivalent": 7,
    "\u0120members": 7,
    "associated": 7,
    "\u0120Listen": 7,
    "\u0120From": 7,
    "\u0120decrease": 7,
    "\u0120nom": 7,
    "\u0120redundant": 7,
    "\u0120EM": 7,
    "Incre": 7,
    "Lin": 7,
    "az": 7,
    "\u0120Syn": 7,
    "Note": 7,
    "\u0120Either": 7,
    "\u0120PAL": 7,
    "\u0120remain": 7,
    "***": 7,
    "\u0120world": 7,
    "ulatory": 7,
    "\u0120Input": 7,
    "XM": 7,
    "abled": 7,
    "Phase": 7,
    "\u0120taking": 7,
    "\u0120Soft": 7,
    "\u0120Auto": 7,
    "urrency": 7,
    "\u0120Kernel": 7,
    "Required": 7,
    "\u0120fact": 7,
    "\u0120requesting": 7,
    "Vote": 7,
    "\u0120boolean": 7,
    "eros": 7,
    "\u0120Apply": 7,
    "\u0120unique": 7,
    "\u0120locally": 7,
    "\u0120applicable": 7,
    "\u0120linked": 7,
    "\u0120STOP": 7,
    "\u0120conc": 7,
    "\u0120sends": 7,
    "\u0120activity": 7,
    "\u0120orphan": 7,
    "\u0120WB": 7,
    "\u0120situation": 7,
    "erences": 7,
    "activated": 7,
    "\u0120accurate": 7,
    "\u0120congest": 7,
    "\u0120pick": 7,
    "\u0120swapping": 7,
    "\u0120throughout": 7,
    "\u0120throttle": 7,
    "ipped": 7,
    "\u0120Ident": 7,
    "\u0120stay": 7,
    "\u0120streaming": 7,
    "\u0120anonymous": 7,
    "\u0120problems": 7,
    "\u0120assumption": 7,
    "\u0120reduce": 7,
    "udge": 7,
    "\u0120ratio": 7,
    "\u0120meant": 7,
    "\u0120Account": 7,
    "\u0120considered": 7,
    "\u0120raise": 7,
    "\u0120increasing": 7,
    "49": 7,
    "79": 7,
    "ISO": 7,
    "WH": 7,
    "\u0120largest": 7,
    "\u0120prefer": 7,
    "\u0120retrieving": 7,
    "\u0120Exp": 7,
    "\u0120bigger": 7,
    "MW": 7,
    "Speed": 7,
    "\u0120Unit": 7,
    "\u0120capacity": 7,
    "Exec": 7,
    "\u0120Level": 7,
    "\u0120fet": 7,
    "Back": 7,
    "\u0120Buffer": 7,
    "\u0120populate": 7,
    "\u0120killing": 7,
    "\u0120DEL": 7,
    "\u0120bounds": 7,
    "Su": 7,
    "pie": 7,
    "Fil": 7,
    "\u0120UC": 7,
    "dB": 7,
    "uming": 7,
    "demand": 7,
    "background": 7,
    "\u0120prog": 7,
    "ordering": 7,
    "\u0120goal": 7,
    "\u0120barrier": 7,
    "\u0120Sub": 7,
    "\u0120SG": 7,
    "\u0120unl": 7,
    "\u0120drained": 7,
    "issued": 7,
    "gent": 7,
    "\u0120arrived": 7,
    "\u0120sitting": 7,
    "\u0120together": 7,
    "\u0120behavior": 7,
    "\u0120linger": 7,
    "\u0120owned": 7,
    "\u0120destroyed": 7,
    "that": 7,
    "\u0120who": 7,
    "\u0120explicit": 7,
    "\u0120included": 7,
    "\u0120KB": 7,
    "LESS": 7,
    "\u0120fragments": 7,
    "\u0120places": 7,
    "\u0120Fix": 7,
    "\u0120clamp": 7,
    "\u012065": 7,
    "\u0120effort": 7,
    "\u0120layers": 7,
    "QUIRE": 7,
    "\u0120confirm": 7,
    "cycle": 7,
    "\u0120poison": 7,
    "\u0120determined": 7,
    "\u0120installed": 7,
    "\u0120title": 7,
    "\u0120represents": 7,
    "\u0120escaped": 7,
    "\u0120his": 7,
    "imation": 7,
    "\u0120mixer": 7,
    "Cr": 7,
    "\u0120123": 7,
    "\u0120cam": 7,
    "statement": 7,
    "second": 7,
    "\u0120Format": 7,
    "\u0120Spec": 7,
    "\u0120compatibility": 7,
    "seed": 7,
    "\u0120entropy": 7,
    "\u0120unrecogn": 7,
    "pot": 7,
    "\u0120duplicate": 7,
    "MAT": 7,
    "\u0120curl": 7,
    "\u0120matrix": 7,
    "\u0120validity": 7,
    "\u0120native": 7,
    "ICS": 7,
    "\u0120specification": 7,
    "\u0120propagate": 7,
    "]]": 7,
    "units": 7,
    "\u0120scaling": 7,
    "\u012072": 7,
    "\u0120dependent": 7,
    "\u0120internally": 7,
    "ook": 7,
    "\u0120endif": 7,
    "\u0120RGB": 7,
    "\u0120particular": 7,
    "\u0120Leave": 7,
    "ategy": 7,
    "classes": 7,
    "\u0120specifies": 7,
    "\u0120precision": 7,
    "itter": 7,
    "\u0120front": 7,
    "ynchron": 7,
    "\u0120wanted": 7,
    "\u0120retired": 7,
    "phase": 7,
    "\u0120um": 7,
    "anes": 7,
    "\u0120lines": 7,
    "\u0120pairs": 7,
    "gorithm": 7,
    "\u012063": 7,
    "\u0120rg": 7,
    "\u0120reporting": 7,
    "\u0120thresholds": 7,
    "\u0120stale": 7,
    "\u0120125": 7,
    "\u0120demo": 7,
    "\u0120HT": 7,
    "rection": 7,
    "\u0120comments": 7,
    "\u0120dying": 7,
    "\u0120nobody": 7,
    "\u0120delivery": 7,
    "\u0120bank": 7,
    "\u0120bogus": 7,
    "\u0120eventually": 7,
    "\u0120grace": 7,
    "\u0120encaps": 7,
    "%%": 7,
    "\u0120atom": 7,
    "\u0120gadget": 7,
    "pres": 7,
    "\u0120Inv": 7,
    "\u0120Break": 7,
    "\u0120completes": 7,
    "advert": 7,
    "\u0120often": 7,
    "\u0120prep": 7,
    "\u0120console": 7,
    "\u0120Push": 7,
    "\u0120transactions": 7,
    "\u0120compile": 7,
    "component": 7,
    "CG": 7,
    "\u0120keyword": 7,
    "\u0120EF": 7,
    "QUI": 7,
    "\u0120mounted": 7,
    "\u0120OR": 7,
    "iq": 7,
    "CBC": 7,
    "\u0120pil": 7,
    "oes": 7,
    "\u0120Back": 7,
    "\u0120credentials": 7,
    "\u0120containing": 7,
    "\u0120sorted": 7,
    "\u0120middle": 7,
    "\u0120Search": 7,
    "Pop": 7,
    "\u0120killer": 7,
    "\u0120pressed": 7,
    "osen": 7,
    "\u0120rein": 7,
    "strap": 7,
    "\u0120permitted": 7,
    "aries": 7,
    "\u0120spurious": 7,
    "\u0120scheduling": 7,
    "uss": 7,
    "Aut": 7,
    "\u0120polling": 7,
    "\u0120consumer": 7,
    "wild": 7,
    "iot": 7,
    "\u0120peripheral": 7,
    "itect": 7,
    "reads": 7,
    "peg": 7,
    "\u0120registering": 7,
    "\u0120publish": 7,
    "\u0120margin": 7,
    "\u0120mes": 7,
    "ni": 7,
    "RIC": 7,
    "\u0120WW": 7,
    "\u0120Directory": 7,
    "\u0120Array": 7,
    "\u0120Member": 7,
    "\u0120Resource": 7,
    "ses": 7,
    "checked": 7,
    "\u0120SAM": 7,
    "rang": 7,
    "\u0120Split": 7,
    "Allow": 7,
    "endant": 7,
    "\u0120Pin": 7,
    "\u0120reverse": 7,
    "\u0120sessions": 7,
    "loaded": 7,
    "\u0120phone": 7,
    "\u0120env": 7,
    "\u0120lux": 7,
    "\u0120tre": 7,
    "\u0120pim": 7,
    "ums": 7,
    "rets": 7,
    "\u0120NPR": 7,
    "Orig": 7,
    "gold": 7,
    "\u0120eq": 7,
    "strings": 7,
    "created": 7,
    "ja": 7,
    "yellow": 7,
    "249": 7,
    "rop": 7,
    "202": 7,
    "LU": 7,
    "ron": 7,
    "sic": 7,
    "cycl": 7,
    "rex": 7,
    "\u0120cores": 7,
    "\u0120noise": 7,
    "\u0120Our": 7,
    "\u0120ti": 7,
    "ility": 7,
    "\u0120mas": 7,
    "Flow": 7,
    "\u0120Single": 7,
    "\u0120Blocks": 7,
    "isal": 7,
    "Fact": 7,
    "\u0120prompt": 7,
    "keeping": 7,
    "\u0120guilty": 7,
    "aders": 7,
    "\u0120replacement": 7,
    "\u0120GPS": 7,
    "\u0120Num": 7,
    "asy": 7,
    "WN": 7,
    "\u0120identify": 7,
    "illegal": 7,
    "oS": 7,
    "inner": 7,
    "hn": 7,
    "ftime": 7,
    "\u0120delim": 7,
    "ery": 7,
    "Owner": 7,
    "lihood": 7,
    "Style": 7,
    "Fun": 7,
    "\u0120visual": 7,
    "hent": 7,
    "via": 7,
    "acks": 7,
    "checking": 7,
    "powered": 7,
    "\u0120PROG": 7,
    "\u0120decoding": 7,
    "STAR": 7,
    "\u0120Physical": 7,
    "\u0120BG": 7,
    "ional": 7,
    "\u0120GUN": 7,
    "atted": 7,
    "asp": 7,
    "\u0120Ask": 7,
    "Break": 7,
    "\u0120CLI": 7,
    "\u0120colon": 7,
    "redict": 7,
    "\u0120holds": 7,
    "amine": 7,
    "\u0120py": 7,
    "\u0120medial": 7,
    "\u0120cold": 7,
    "\u0120600": 7,
    "\u0120ICC": 7,
    "\u0120NETWORK": 7,
    "Dep": 7,
    "Dat": 7,
    "cas": 6,
    "both": 6,
    "\u0120attempted": 6,
    "103": 6,
    "budget": 6,
    "\u0120Panel": 6,
    "\u0120faster": 6,
    "erate": 6,
    "\u0120Name": 6,
    ":'": 6,
    "OWS": 6,
    "\u0120Detect": 6,
    "\u0120Len": 6,
    "arity": 6,
    "Pattern": 6,
    "abe": 6,
    "\u0120fits": 6,
    "TING": 6,
    "###": 6,
    "\u0120exact": 6,
    "nob": 6,
    "\u0120Grab": 6,
    "cases": 6,
    "\u0120outputs": 6,
    "ctions": 6,
    "\u0120199": 6,
    "vic": 6,
    "\u0120Dev": 6,
    "Record": 6,
    "\u0120quer": 6,
    "ying": 6,
    "]\"": 6,
    "\u0120TBD": 6,
    "\u0120alone": 6,
    "\u0120roaming": 6,
    "\u0120dwell": 6,
    "\u0120reass": 6,
    "\u0120decimal": 6,
    "\u0120odd": 6,
    "\u0120Connection": 6,
    "Dynamic": 6,
    "\u0120Lock": 6,
    "\u0120loading": 6,
    "\u0120CC": 6,
    "\u0120manner": 6,
    "\u0120synchronization": 6,
    "\u0120traffic": 6,
    "\u0120Lib": 6,
    "\u0120indication": 6,
    "Hardware": 6,
    "Main": 6,
    "\u0120Build": 6,
    "\u0120interfaces": 6,
    "dating": 6,
    "\u0120safety": 6,
    "Private": 6,
    "good": 6,
    "\u0120effectively": 6,
    "\u0120Another": 6,
    "\u0120FS": 6,
    "\u0120What": 6,
    "\u0120risk": 6,
    "\u0120worked": 6,
    "\u0120candidate": 6,
    "STE": 6,
    "nation": 6,
    "\u0120proportional": 6,
    "\u0120percentage": 6,
    "\u0120reasonable": 6,
    "want": 6,
    "\u0120finding": 6,
    "\u0120performing": 6,
    "\u0120idea": 6,
    "raise": 6,
    "\u0120sometimes": 6,
    "\u0120similar": 6,
    "\u0120accounted": 6,
    "193": 6,
    "700": 6,
    "472": 6,
    "\u0120Memory": 6,
    "DAY": 6,
    "native": 6,
    "\u0120VID": 6,
    "\u0120nm": 6,
    "\u0120addition": 6,
    "never": 6,
    "summary": 6,
    "Es": 6,
    "Operation": 6,
    "\u0120WI": 6,
    "\u0120obtained": 6,
    "\u0120issued": 6,
    "based": 6,
    "\u0120mic": 6,
    "Support": 6,
    "YES": 6,
    "chains": 6,
    "\u0120although": 6,
    "\u0120List": 6,
    "\u0120NEED": 6,
    "??": 6,
    "\u0120moving": 6,
    "\u0120Debug": 6,
    "Pref": 6,
    "-------": 6,
    "-------------": 6,
    "0100": 6,
    "\u0120thinks": 6,
    "idden": 6,
    "\u0120owns": 6,
    "\u0120discrepancy": 6,
    "ooting": 6,
    "GROUND": 6,
    "Install": 6,
    "liquid": 6,
    "rum": 6,
    "\u0120Socket": 6,
    "\u0120applications": 6,
    "\u0120docs": 6,
    "\u0120independent": 6,
    "\u0120Install": 6,
    "\u0120Exception": 6,
    "\u0120tuning": 6,
    "\u0120life": 6,
    "\u0120Later": 6,
    "\u0120parts": 6,
    "\u0120giving": 6,
    "\u0120TOP": 6,
    "\u0120playback": 6,
    "/(": 6,
    "ration": 6,
    "oned": 6,
    "manufact": 6,
    "urer": 6,
    "\u0120wasn": 6,
    "Enter": 6,
    "\u0120sar": 6,
    "\u0120overhead": 6,
    "information": 6,
    "mission": 6,
    "\u0120shut": 6,
    "\u0120miss": 6,
    "\u0120PSP": 6,
    "\u0120increased": 6,
    "2000": 6,
    "ORED": 6,
    "canon": 6,
    "\u0120Insert": 6,
    "\u0120Remember": 6,
    "\u0120Window": 6,
    "dk": 6,
    "ale": 6,
    "\u0120High": 6,
    "\u0120wall": 6,
    "yet": 6,
    "\u0120qu": 6,
    "irk": 6,
    "\\\",": 6,
    "etooth": 6,
    "existing": 6,
    "\u0120plan": 6,
    "aged": 6,
    "\u0120lets": 6,
    "\u012061": 6,
    "\u012059": 6,
    "pared": 6,
    "\u0120CLE": 6,
    "central": 6,
    "\u0120dos": 6,
    "\u0120validation": 6,
    "\u0120appears": 6,
    "\u0120SHA": 6,
    "\u0120closing": 6,
    "fit": 6,
    "\u012090": 6,
    "\u0120formats": 6,
    "\u0120UCS": 6,
    "\u0120purpose": 6,
    "?)": 6,
    "Try": 6,
    "below": 6,
    "\u0120matched": 6,
    "\u0120leak": 6,
    "True": 6,
    "Writing": 6,
    "\u0120international": 6,
    "\u0120interested": 6,
    "\u0120leaving": 6,
    "\u012096": 6,
    "\u0120warm": 6,
    "\u0120persistent": 6,
    "\u0120paths": 6,
    "\u0120Train": 6,
    "\u0120Iron": 6,
    "\u0120stuck": 6,
    "\u0120connectors": 6,
    "\u0120ED": 6,
    "\u0120dot": 6,
    "\u0120pair": 6,
    "\u0120stable": 6,
    "\u0120manual": 6,
    "\u0120Bus": 6,
    "san": 6,
    "les": 6,
    "900": 6,
    "\u0120LC": 6,
    "\u0120mailbox": 6,
    "\u0120uncond": 6,
    "RH": 6,
    "\u0120VS": 6,
    "'m": 6,
    "\u0120turns": 6,
    "\u0120mang": 6,
    "\u0120accidentally": 6,
    "\u0120Rem": 6,
    "\u0120including": 6,
    "\u0120tracks": 6,
    "\u0120unchanged": 6,
    "\u0120trust": 6,
    "\u0120BP": 6,
    "\u0120bog": 6,
    "\u0120printed": 6,
    "\u0120four": 6,
    "\u0120Ham": 6,
    "\u0120words": 6,
    "\u0120interpret": 6,
    "sized": 6,
    "\u0120think": 6,
    "\u0120Er": 6,
    "vious": 6,
    "boards": 6,
    "\u0120sensors": 6,
    "\u0120strong": 6,
    "\u0120notifications": 6,
    "\u0120Per": 6,
    "=[": 6,
    "reports": 6,
    "grab": 6,
    "\u0120adv": 6,
    "\u0120dent": 6,
    "Sys": 6,
    "\u0120ca": 6,
    "Got": 6,
    "\u012007": 6,
    "agic": 6,
    "\u0120consecutive": 6,
    "\u0120vibr": 6,
    "NB": 6,
    "\u0120ES": 6,
    "\u0120nil": 6,
    "\u0120kept": 6,
    "\u0120consistency": 6,
    "amount": 6,
    "\u0120kernels": 6,
    "\u0120separate": 6,
    "\u0120quiet": 6,
    "\u0120resumed": 6,
    "\u0120How": 6,
    "\u0120refer": 6,
    "\u0120walking": 6,
    "\u0120follows": 6,
    "Sequ": 6,
    "\u0120inserted": 6,
    "rit": 6,
    "\u0120presence": 6,
    "\u0120shadow": 6,
    "\u0120ordered": 6,
    "\u0120counted": 6,
    "\u0120contexts": 6,
    "\u0120revocation": 6,
    "\u0120Hash": 6,
    "\u0120propagation": 6,
    "\u0120rank": 6,
    "\u0120sens": 6,
    "\u0120acceptable": 6,
    "\u0120inspired": 6,
    "OULD": 6,
    "\u0120manage": 6,
    "\u0120toggle": 6,
    "Man": 6,
    "emer": 6,
    "gency": 6,
    "ordered": 6,
    "iler": 6,
    "without": 6,
    "\u0120onto": 6,
    "\u0120Attempt": 6,
    "\u0120supposed": 6,
    "\u0120Min": 6,
    "\u0120notified": 6,
    "\u0120pause": 6,
    "\u0120SUN": 6,
    "\u0120SUPPORT": 6,
    "\u0120DUP": 6,
    "\u0120whenever": 6,
    "\u0120understand": 6,
    "\u0120TOTAL": 6,
    "\u0120template": 6,
    "bell": 6,
    "\u0120deg": 6,
    "GV": 6,
    "\u0120df": 6,
    "hiba": 6,
    "lected": 6,
    "WARE": 6,
    "Pe": 6,
    "oot": 6,
    "\u0120Cascade": 6,
    "TOR": 6,
    "72": 6,
    "IDENT": 6,
    "ial": 6,
    "\u0120fi": 6,
    "HO": 6,
    "impl": 6,
    "\u0120holes": 6,
    "fair": 6,
    "amsung": 6,
    "\u0120STEP": 6,
    "motion": 6,
    "\u0120instrument": 6,
    "take": 6,
    "WHO": 6,
    "\u0120po": 6,
    "yes": 6,
    "\u0120caused": 6,
    "\u0120lot": 6,
    "lite": 6,
    "Live": 6,
    "ana": 6,
    "rh": 6,
    "\u0120Apps": 6,
    "1111": 6,
    "suff": 6,
    "ivery": 6,
    "\u0120bal": 6,
    "Events": 6,
    "iop": 6,
    "arts": 6,
    "gal": 6,
    "adata": 6,
    "usat": 6,
    "itched": 6,
    "\u0120specifically": 6,
    "iu": 6,
    "\u0120compilation": 6,
    "Single": 6,
    "\u0120Stream": 6,
    "FU": 6,
    "Width": 6,
    "IQ": 6,
    "Poll": 6,
    "\u0120OD": 6,
    "\u0120User": 6,
    "ilty": 6,
    "\u0120needles": 6,
    "\u0120mods": 6,
    "\u0120gob": 6,
    "\u0120COL": 6,
    "\u0120editor": 6,
    "arded": 6,
    "gin": 6,
    "\u0120five": 6,
    "las": 6,
    "\u0120canonical": 6,
    "\u0120digs": 6,
    "\u0120fac": 6,
    "\u0120retain": 6,
    ">>>>": 6,
    "\u0120third": 6,
    "tch": 6,
    "why": 6,
    "\u0120opaque": 6,
    "\u0120expl": 6,
    "\u0120Range": 6,
    "Energy": 6,
    "\u0120cent": 6,
    "pet": 6,
    "\u0120mu": 6,
    "\u0120repetition": 6,
    "design": 6,
    "\u0120enforce": 6,
    "\u0120axis": 6,
    "styles": 6,
    "cript": 6,
    "roups": 6,
    "ati": 6,
    "Poly": 6,
    "Stage": 6,
    "Rot": 6,
    "Join": 6,
    "\u0120CW": 6,
    "vis": 6,
    "\u0120CMS": 6,
    "interrupted": 6,
    "\u0120describes": 6,
    "Soft": 6,
    "\u0120Pick": 6,
    "\u0120replies": 6,
    "\u0120sweep": 6,
    "\u0120residue": 6,
    "\u0120mar": 6,
    "former": 6,
    "\u0120fid": 6,
    "UFF": 6,
    "ney": 6,
    "sol": 6,
    "\u0120Pars": 6,
    "upid": 6,
    "\u0120Extract": 6,
    "Agent": 6,
    "\u0120Description": 6,
    "\u0120iP": 6,
    "\u0120REL": 6,
    "eu": 6,
    "\u0120tel": 6,
    "isle": 6,
    "uel": 6,
    "oven": 6,
    "Security": 6,
    "Moving": 6,
    "mob": 6,
    "allows": 6,
    "\u0120buckets": 6,
    "hib": 6,
    "405": 6,
    "\u0120LT": 6,
    "118": 6,
    "\u0120selector": 6,
    "052": 6,
    "369": 6,
    "irements": 6,
    "Roll": 6,
    "\u0120Audio": 6,
    "rus": 6,
    "\u0120tall": 6,
    "duty": 5,
    ":-": 5,
    "332": 5,
    "\u0120Im": 5,
    "lin": 5,
    "\u0120logs": 5,
    "\u0120BUS": 5,
    "sup": 5,
    "\u0120oldest": 5,
    "\u0120convenience": 5,
    "\u0120consists": 5,
    "\u0120Caller": 5,
    ":(": 5,
    "\u0120generation": 5,
    "\u0120yield": 5,
    "133": 5,
    "hops": 5,
    "itching": 5,
    "\u0120bandwidth": 5,
    "encies": 5,
    "apse": 5,
    "\u0120guaranteed": 5,
    "\u0120panic": 5,
    "FBI": 5,
    "\u0120ONE": 5,
    "\u0120effective": 5,
    "sure": 5,
    "\u0120spans": 5,
    "Have": 5,
    "Pol": 5,
    "\u0120Net": 5,
    "\u0120Ro": 5,
    "ement": 5,
    "ETF": 5,
    "getting": 5,
    "isted": 5,
    "\u0120connecting": 5,
    "DEN": 5,
    "\u0120Cancel": 5,
    "\u0120WD": 5,
    "\u0120compiled": 5,
    "\u0120instances": 5,
    "\u0120downloaded": 5,
    "\u0120BTC": 5,
    "\u0120Up": 5,
    "\u0120scenario": 5,
    "Middle": 5,
    "Roaming": 5,
    "\\'": 5,
    "\u0120stalled": 5,
    "\u0120reflect": 5,
    "\u0120satisfied": 5,
    "\u0120ordering": 5,
    "redo": 5,
    "\u0120racing": 5,
    "\u0120isolation": 5,
    "\u0120among": 5,
    "\u0120lead": 5,
    "\u0120activated": 5,
    "\u0120executable": 5,
    "\u0120determines": 5,
    "\u0120waits": 5,
    "\u0120slightly": 5,
    "\u0120waking": 5,
    "\u0120appear": 5,
    "\u0120operate": 5,
    "\u0120relies": 5,
    "\u0120backed": 5,
    "\u0120balancing": 5,
    "\u0120ma": 5,
    "\u0120Record": 5,
    "\u0120COMP": 5,
    "\u0120sufficient": 5,
    "aptop": 5,
    "\u0120wakes": 5,
    "\u0120More": 5,
    "\u0120nos": 5,
    "\u0120premature": 5,
    "\u0120performance": 5,
    "\u0120background": 5,
    "\u0120behind": 5,
    "\u0120SYSTEM": 5,
    "\u0120lack": 5,
    "\u0120Cal": 5,
    "\u0120Cr": 5,
    "152": 5,
    "\u0120CSI": 5,
    "negative": 5,
    "flu": 5,
    "\u012035": 5,
    "isd": 5,
    "\u0120yes": 5,
    "\u0120ele": 5,
    "****": 5,
    "\u0120accommodate": 5,
    "\u0120Actually": 5,
    "\u0120Pad": 5,
    "Rat": 5,
    "Static": 5,
    "\u0120expects": 5,
    "aming": 5,
    "Limit": 5,
    "\u0120ml": 5,
    "Old": 5,
    "Changed": 5,
    "\u0120Total": 5,
    "------------------------": 5,
    "\u0120Con": 5,
    "\u0120components": 5,
    "\u0120Exec": 5,
    "Keep": 5,
    "\u0120Returning": 5,
    "\u0120Flag": 5,
    "\u0120meet": 5,
    "known": 5,
    "\u0120util": 5,
    "\u0120Initially": 5,
    "\u0120siblings": 5,
    "\u0120restrictions": 5,
    "Reb": 5,
    "finger": 5,
    "\u0120NFC": 5,
    "\u0120Chip": 5,
    "\u0120implementations": 5,
    "\u0120notion": 5,
    "\u0120documentation": 5,
    "\u0120somebody": 5,
    "\u0120hung": 5,
    "inking": 5,
    "\u0120raised": 5,
    "\u0120weird": 5,
    "\u0120patch": 5,
    "\u0120releasing": 5,
    "ashed": 5,
    "\u0120effects": 5,
    "\u0120missed": 5,
    "\u0120servers": 5,
    "\u0120significant": 5,
    "ooo": 5,
    "\u0120Ext": 5,
    "\u0120Head": 5,
    "\u0120Raw": 5,
    "\u0120Clone": 5,
    "ths": 5,
    "\u0120Se": 5,
    "\u0120Therefore": 5,
    "\u0120SAR": 5,
    "Changing": 5,
    "\u0120recommended": 5,
    "ISION": 5,
    "\u0120Other": 5,
    "assembly": 5,
    "\u0120disc": 5,
    "\u0120overfl": 5,
    "\u0120failures": 5,
    "\u0120ability": 5,
    "\u0120perm": 5,
    "\u0120bounce": 5,
    "ribution": 5,
    "\u0120construct": 5,
    "\u0120handlers": 5,
    "\u0120accessible": 5,
    "ground": 5,
    "\u0120pic": 5,
    "evaluate": 5,
    "\u0120Delete": 5,
    "\u0120definitions": 5,
    "\u0120pipeline": 5,
    "={": 5,
    "\u0120play": 5,
    "\u0120',": 5,
    "\u0120invocation": 5,
    "201": 5,
    "\u0120statement": 5,
    "\u0120\"'": 5,
    "RAL": 5,
    "\u0120Close": 5,
    "uer": 5,
    "\u0120distinguish": 5,
    "\u0120decide": 5,
    "easy": 5,
    "Loader": 5,
    "yx": 5,
    "yy": 5,
    "\u0120dealing": 5,
    "\u0120tricky": 5,
    "\u0120charm": 5,
    "\u0120fonts": 5,
    "\u0120Unicode": 5,
    "\u0120generally": 5,
    "wra": 5,
    "Missing": 5,
    "\u0120asc": 5,
    "\u0120versions": 5,
    "\u0120avoids": 5,
    "Engine": 5,
    "intent": 5,
    "WAYS": 5,
    "COLOR": 5,
    "aced": 5,
    "\u0120transformations": 5,
    "wrote": 5,
    "\u0120costs": 5,
    "\u0120intermediate": 5,
    "\u0120strategy": 5,
    "\u0120Swap": 5,
    "\u0120warnings": 5,
    "\u0120multiplier": 5,
    "\u0120PP": 5,
    "\u0120switched": 5,
    "because": 5,
    "wed": 5,
    "460": 5,
    "\u0120correction": 5,
    "\u0120Without": 5,
    "\u0120scal": 5,
    "\u0120400": 5,
    "\u0120cx": 5,
    "\u0120chipset": 5,
    "\u0120chips": 5,
    "fits": 5,
    "\u0120calculation": 5,
    "\u0120Before": 5,
    "\u0120begins": 5,
    "\u0120VR": 5,
    "itionally": 5,
    "Unit": 5,
    "\u0120Point": 5,
    "\u0120RS": 5,
    "\u0120combined": 5,
    "lying": 5,
    "\u0120startup": 5,
    "\u0120HS": 5,
    "Pl": 5,
    "\u0120vir": 5,
    "ried": 5,
    "arily": 5,
    "\u0120belong": 5,
    "Adjust": 5,
    "\u0120confused": 5,
    "\u0120Done": 5,
    "turn": 5,
    "arest": 5,
    "\u0120pseudo": 5,
    "\u0120pretend": 5,
    "printed": 5,
    "\u0120mis": 5,
    "\u0120Virtual": 5,
    "Part": 5,
    "\u0120negotiation": 5,
    "\u0120converted": 5,
    "cks": 5,
    "\u0120???": 5,
    "\u0120AND": 5,
    "\u0120wouldn": 5,
    "Neg": 5,
    "040": 5,
    "\u0120regions": 5,
    "\u0120initiated": 5,
    "ODUCT": 5,
    "capacity": 5,
    "\u0120tells": 5,
    "\u0120###": 5,
    "\u0120El": 5,
    "\u0120coordinates": 5,
    "\u0120Finally": 5,
    "\u0120arrives": 5,
    "\u0120Perform": 5,
    "umps": 5,
    "\u0120scripts": 5,
    "\u0120coming": 5,
    "432": 5,
    "\u0120upstream": 5,
    "\u0120DPR": 5,
    "\u0120manager": 5,
    "\u0120permissions": 5,
    "\u0120dock": 5,
    "\u0120pins": 5,
    "pins": 5,
    "\u0120computation": 5,
    "\u012037": 5,
    "\u0120privileged": 5,
    "\u0120counting": 5,
    "ancing": 5,
    "\u01209000": 5,
    "\u0120downloading": 5,
    "\u0120autos": 5,
    "\u0120overrun": 5,
    "uses": 5,
    "\u0120Choose": 5,
    "\u0120badly": 5,
    "\u0120touched": 5,
    "\u0120gate": 5,
    "\u0120guard": 5,
    "\u0120programs": 5,
    "\u0120maps": 5,
    "aults": 5,
    "\u0120formatted": 5,
    "\u0120covers": 5,
    "bid": 5,
    "\u0120Step": 5,
    "\u0120sparse": 5,
    "cone": 5,
    "ski": 5,
    ":{": 5,
    "\u0120Voltage": 5,
    "Five": 5,
    "\u0120tokens": 5,
    "/**": 5,
    "\u0120Lit": 5,
    "\u0120searching": 5,
    "\u0120feedback": 5,
    "\u0120Alt": 5,
    "\u0120suppress": 5,
    "\u0120silent": 5,
    "Red": 5,
    "\u0120May": 5,
    "outside": 5,
    "ials": 5,
    "\u0120Rel": 5,
    "\u0120freeze": 5,
    "\u0120fract": 5,
    "\u0120caching": 5,
    "ULAR": 5,
    "\u0120opp": 5,
    "WT": 5,
    "OE": 5,
    "Phys": 5,
    "\u0120Comm": 5,
    "Area": 5,
    "\u0120257": 5,
    "uffle": 5,
    "765": 5,
    "\u0120plat": 5,
    "optional": 5,
    "lest": 5,
    "ming": 5,
    "sharp": 5,
    "join": 5,
    "ATIONAL": 5,
    "folder": 5,
    "\u0120[]": 5,
    "\u0120subt": 5,
    "\u0120covered": 5,
    "\u0120accordingly": 5,
    "ole": 5,
    "\u0120tried": 5,
    "\u0120prepared": 5,
    "\u0120Transfer": 5,
    "\u0120illegal": 5,
    "\u0120conditional": 5,
    "overed": 5,
    "\u0120cal": 5,
    "dem": 5,
    "\u0120router": 5,
    "305": 5,
    "\u0120constant": 5,
    "\u0120Pop": 5,
    "protected": 5,
    "\u0120identical": 5,
    "rio": 5,
    "Split": 5,
    "\u0120286": 5,
    "\u0120Def": 5,
    "ivers": 5,
    "sle": 5,
    "anded": 5,
    "ocon": 5,
    "\u0120'[": 5,
    "BN": 5,
    "\u0120aw": 5,
    "-(": 5,
    "mate": 5,
    "\u0120IDE": 5,
    "\u0120chap": 5,
    "IAS": 5,
    "00000000": 5,
    "Di": 5,
    "posed": 5,
    "aned": 5,
    "Sel": 5,
    "ecd": 5,
    "\u0120Intel": 5,
    "qa": 5,
    "\u0120slid": 5,
    "letter": 5,
    "ield": 5,
    "),\"": 5,
    "\u0120accumulate": 5,
    "709": 5,
    "ada": 5,
    "OUR": 5,
    "NZ": 5,
    "\u0120supers": 5,
    "\u0120susp": 5,
    "\u0120Ar": 5,
    "Application": 5,
    "\u0120quit": 5,
    "ombie": 5,
    "\u0120terminating": 5,
    "\u0120detached": 5,
    "\u0120exc": 5,
    "\u0120assemb": 5,
    "spawn": 5,
    "Gr": 5,
    "Protect": 5,
    "Parent": 5,
    "\u0120cos": 5,
    "\u0120worse": 5,
    "\u0120hay": 5,
    "\u0120needle": 5,
    "scroll": 5,
    "Attributes": 5,
    "edited": 5,
    "\u0120Video": 5,
    "\u0120asymm": 5,
    "inger": 5,
    "Compar": 5,
    "zz": 5,
    "abyte": 5,
    "don": 5,
    "nets": 5,
    "\u0120expand": 5,
    "\u0120directive": 5,
    "Secret": 5,
    "rounded": 5,
    "\u0120accepted": 5,
    "who": 5,
    "cent": 5,
    "\u0120spatial": 5,
    "Null": 5,
    "mass": 5,
    "riors": 5,
    "\u0120Har": 5,
    "Buzz": 5,
    "UTF": 5,
    "Prov": 5,
    "Mat": 5,
    ">]": 5,
    "Running": 5,
    "hemer": 5,
    "\u0120ASC": 5,
    "ileged": 5,
    "PROV": 5,
    "\u0120Discovery": 5,
    "mph": 5,
    "310": 5,
    "\u0120items": 5,
    "uk": 5,
    "\"'": 5,
    "\u0120recognized": 5,
    "\\/": 5,
    "\u0120saw": 5,
    "\u0120resize": 5,
    "\u0120Table": 5,
    "universal": 5,
    "642": 5,
    "\u0120WARN": 5,
    "another": 5,
    "\u0120NM": 5,
    "1999": 5,
    ").\"": 5,
    "\u0120emitted": 5,
    "\u0120libraries": 5,
    "\u0120uploaded": 5,
    "\u0120fewer": 5,
    "Flash": 5,
    "Kill": 5,
    "\u0120agent": 5,
    "esses": 5,
    "ular": 5,
    "\u0120sequences": 5,
    "\u0120relaxation": 5,
    "ono": 5,
    "cro": 5,
    "abi": 5,
    "\u0120curse": 5,
    "anti": 5,
    "\u0120135": 5,
    "\u0120radios": 5,
    "\u0120upro": 5,
    "\u0120eb": 5,
    "\u0120Codec": 5,
    "irement": 5,
    "FORMATION": 5,
    "Opp": 5,
    "Vol": 5,
    "cut": 5,
    "adh": 5,
    "\u0120Plugin": 5,
    "\u0120TE": 4,
    "\u01206000": 4,
    "596": 4,
    "orient": 4,
    "\u0120orientation": 4,
    "\u0120splash": 4,
    "hang": 4,
    "ARC": 4,
    "\u0120precedence": 4,
    "\u0120refuse": 4,
    "\u0120termin": 4,
    "\u0120networks": 4,
    "\u0120padded": 4,
    "\u0120Function": 4,
    "health": 4,
    "rings": 4,
    "\u0120Needs": 4,
    "oe": 4,
    "just": 4,
    "\u0120Broadcast": 4,
    "\u0120mix": 4,
    "eal": 4,
    "necessary": 4,
    "iver": 4,
    "\u0120drops": 4,
    "ources": 4,
    "511": 4,
    "WB": 4,
    "then": 4,
    "here": 4,
    "\u0120annotation": 4,
    "\u0120Local": 4,
    "\u0120bridge": 4,
    "\u0120Client": 4,
    "Complete": 4,
    "\u0120Decre": 4,
    "\u0120corresponds": 4,
    "Loading": 4,
    "\u0120Country": 4,
    "Domain": 4,
    "ann": 4,
    "\u0120Still": 4,
    "\u0120validated": 4,
    "\u0120Action": 4,
    "Apply": 4,
    "\u0120Mut": 4,
    "\u0120Flags": 4,
    "\u0120cance": 4,
    "\u0120asynchronous": 4,
    "\u0120Deep": 4,
    "\u0120dynamically": 4,
    "\u0120{{": 4,
    "\u0120powered": 4,
    "\u0120SAL": 4,
    "-\"": 4,
    "\u0120Iter": 4,
    "\u0120wind": 4,
    "\u0120exhausted": 4,
    "\u0120congestion": 4,
    "\u0120unlocked": 4,
    "\u0120Double": 4,
    "\u0120encounters": 4,
    "\u0120Case": 4,
    "\u0120encountered": 4,
    "\u0120discover": 4,
    "unless": 4,
    "\u0120isol": 4,
    "lived": 4,
    "alling": 4,
    "\u0120helps": 4,
    "\u0120tends": 4,
    "\u0120average": 4,
    "\u0120proportion": 4,
    "\u0120overall": 4,
    "\u0120satisfy": 4,
    "\u0120laptop": 4,
    "killer": 4,
    "\u0120continuing": 4,
    "oken": 4,
    "\u0120exits": 4,
    "IPP": 4,
    "\u0120opposite": 4,
    "\u0120excessively": 4,
    "\u0120decision": 4,
    "\u0120records": 4,
    "\u0120caught": 4,
    "\u0120refrigerator": 4,
    "\u0120wide": 4,
    "Sensor": 4,
    "370": 4,
    "361": 4,
    "395": 4,
    "387": 4,
    "705": 4,
    "199": 4,
    "391": 4,
    "660": 4,
    "478": 4,
    "412": 4,
    "\u0120TOR": 4,
    "\u0120camer": 4,
    "\u0120recording": 4,
    "\u0120UPDATE": 4,
    "\u0120INS": 4,
    "350": 4,
    "===": 4,
    "Os": 4,
    "\u0120Main": 4,
    "aving": 4,
    "\u0120None": 4,
    "icated": 4,
    "*****": 4,
    "\u0120Corruption": 4,
    "\u0120Old": 4,
    "\u0120Settings": 4,
    "\u0120Frequency": 4,
    "\u0120Oper": 4,
    "Ast": 4,
    "\u0120accumulated": 4,
    "oti": 4,
    "\u0120Wireless": 4,
    "\u0120Extensions": 4,
    "\u0120android": 4,
    "\u0120***": 4,
    "--------------": 4,
    "\u0120Tem": 4,
    "Failure": 4,
    "Return": 4,
    "three": 4,
    "\u0120refused": 4,
    "beat": 4,
    "\u0120Maximum": 4,
    "\u0120288": 4,
    "mmm": 4,
    "\u0120GR": 4,
    "\u0120HERE": 4,
    "\u0120Id": 4,
    "\u0120individually": 4,
    "\u0120Alive": 4,
    "\u0120hits": 4,
    "\u0120IDs": 4,
    "\u0120passing": 4,
    "\u0120----------------": 4,
    "\u0120Th": 4,
    "\u0120Current": 4,
    "\u0120Reserved": 4,
    "0010": 4,
    "\u0120aware": 4,
    "\u0120anybody": 4,
    "\u0120colors": 4,
    "\u0120resolution": 4,
    "\u0120anim": 4,
    "../": 4,
    "iko": 4,
    "\u0120talk": 4,
    "\u0120draft": 4,
    "\u0120appearance": 4,
    "\u0120dilemma": 4,
    "\u0120fresh": 4,
    "una": 4,
    "\u0120Maybe": 4,
    "\u0120Small": 4,
    "\u0120restored": 4,
    "\u0120Fixed": 4,
    "\u0120cheap": 4,
    "\u0120aggreg": 4,
    "\u0120coales": 4,
    "cing": 4,
    "\u0120specially": 4,
    "\u0120Are": 4,
    "\u0120elegant": 4,
    "\u0120eats": 4,
    "\u0120FTP": 4,
    "\u0120speaking": 4,
    "\u0120minute": 4,
    "\u0120almost": 4,
    "\u0120mistake": 4,
    "\u0120finishes": 4,
    "\u0120typically": 4,
    "\u0120Cap": 4,
    "ackets": 4,
    "\u0120unt": 4,
    "shi": 4,
    "\u01204000": 4,
    "\u0120250": 4,
    "\u0120254": 4,
    "\u0120feat": 4,
    "\u0120bat": 4,
    "\u0120controllers": 4,
    "\u0120Ack": 4,
    "\u0120fragmented": 4,
    "\u0120radio": 4,
    "\u0120produce": 4,
    "\u0120maintain": 4,
    "\u0120Trigger": 4,
    "\u0120Respond": 4,
    "answer": 4,
    "\u0120Already": 4,
    "\u0120Both": 4,
    "\u0120locate": 4,
    "\u0120understood": 4,
    "\u0120imply": 4,
    "Du": 4,
    "arding": 4,
    "\u0120receiver": 4,
    "\u0120incomplete": 4,
    "pecting": 4,
    "\u0120pa": 4,
    "\u0120SEE": 4,
    "\u0120copies": 4,
    "ille": 4,
    "average": 4,
    "\u0120Something": 4,
    "\u0120claimed": 4,
    "andom": 4,
    "\u0120displayed": 4,
    "\u0120box": 4,
    "\u0120widget": 4,
    "\u0120Second": 4,
    "'>": 4,
    "\u0120Hook": 4,
    "\u0120ty": 4,
    "\u0120necessarily": 4,
    "park": 4,
    "\u0120sampling": 4,
    "ital": 4,
    "\u0120tracking": 4,
    "\u0120transferred": 4,
    "ative": 4,
    "ownt": 4,
    "\u0120RF": 4,
    "\u0120rot": 4,
    "\u0120primitive": 4,
    "Calling": 4,
    "\u0120central": 4,
    "\u0120perhaps": 4,
    "riv": 4,
    "still": 4,
    "\u0120cast": 4,
    "Vert": 4,
    "OME": 4,
    "mental": 4,
    "ara": 4,
    "Reference": 4,
    "strike": 4,
    "erning": 4,
    "Maps": 4,
    "GD": 4,
    "ixel": 4,
    "\u0120RG": 4,
    "\u0120weights": 4,
    "Text": 4,
    "pointers": 4,
    "\u0120uns": 4,
    "\u0120pine": 4,
    "\u0120races": 4,
    "anks": 4,
    "\u0120pitch": 4,
    "ifies": 4,
    "\u0120rendering": 4,
    "lling": 4,
    "\u0120entirely": 4,
    "\u0120multiply": 4,
    "\u0120revoked": 4,
    "\u0120shares": 4,
    "\u0120several": 4,
    "\u0120promote": 4,
    "achel": 4,
    "\u0120curs": 4,
    "ora": 4,
    "\u0120preserve": 4,
    "cho": 4,
    "\u0120TV": 4,
    "\u0120controls": 4,
    "\u0120accessed": 4,
    "\u0120Schedule": 4,
    "\u0120vide": 4,
    "rogram": 4,
    "\u0120Who": 4,
    "\u0120Wa": 4,
    "\u0120BASE": 4,
    "owa": 4,
    "IDA": 4,
    "\u0120near": 4,
    "1100": 4,
    "olic": 4,
    "\u0120belongs": 4,
    "VERTIS": 4,
    "\u0120advertising": 4,
    "\u0120Why": 4,
    "\u0120RUN": 4,
    "\u0120REALLY": 4,
    "\u0120ordinary": 4,
    "\u0120consume": 4,
    "\u0120Ethernet": 4,
    "\u012046": 4,
    "320": 4,
    "360": 4,
    "uous": 4,
    ">.": 4,
    "\u0120680": 4,
    "VB": 4,
    "\u0120temperature": 4,
    "115": 4,
    "\u0120finger": 4,
    "\u0120Same": 4,
    "\u0120asked": 4,
    "\u0120garbage": 4,
    "\u0120WR": 4,
    "\u0120reconnect": 4,
    "\u0120avail": 4,
    "\u0120wire": 4,
    "\u0120concept": 4,
    "due": 4,
    "\u0120Recon": 4,
    "\u0120excess": 4,
    "\u0120hour": 4,
    "\u0120hope": 4,
    "Rem": 4,
    "\u0120Support": 4,
    "\u0120named": 4,
    "\u0120Under": 4,
    "\u0120SSL": 4,
    "\u0120clen": 4,
    "Inf": 4,
    "Cent": 4,
    "\u0120constants": 4,
    "jp": 4,
    "\u0120proxy": 4,
    "ark": 4,
    "ky": 4,
    "\u012038": 4,
    "anda": 4,
    "\u0120Legacy": 4,
    "ici": 4,
    "ADE": 4,
    "OTA": 4,
    "\u0120dip": 4,
    "\u0120pinned": 4,
    "\u0120lazy": 4,
    "\u0120modification": 4,
    "\u0120indicated": 4,
    "TN": 4,
    "\u0120Does": 4,
    "isons": 4,
    "\u0120brought": 4,
    "\u0120meaning": 4,
    "\u0120barriers": 4,
    "itting": 4,
    "\u0120permission": 4,
    "\u0120hug": 4,
    "\u0120easier": 4,
    "\u0120contention": 4,
    "\u0120attempts": 4,
    "\u0120gotten": 4,
    "\u0120people": 4,
    "\u0120omit": 4,
    "\u0120ours": 4,
    "such": 4,
    "\u0120stores": 4,
    "\u0120reused": 4,
    "\u0120exclude": 4,
    "antic": 4,
    "\u0120trusted": 4,
    "entity": 4,
    "\u0120constraint": 4,
    "iring": 4,
    "Over": 4,
    "ipl": 4,
    "\u0120flat": 4,
    "\u0120dataset": 4,
    "\u0120Lua": 4,
    "\u0120expiration": 4,
    "ius": 4,
    "Last": 4,
    "\u0120regulators": 4,
    "\u0120extend": 4,
    "leading": 4,
    "\u0120compact": 4,
    "\u0120blinding": 4,
    "\u0120remember": 4,
    "\u0120Vi": 4,
    "\u0120::": 4,
    "\u0120generator": 4,
    "\u0120Content": 4,
    "Crypt": 4,
    "\u0120wipe": 4,
    "\u0120Binary": 4,
    "\u012067": 4,
    "\u0120Cache": 4,
    "cellaneous": 4,
    "\u0120Flash": 4,
    "\u0120shifted": 4,
    "culated": 4,
    "rid": 4,
    "Item": 4,
    "Previous": 4,
    "\u0120printing": 4,
    "linux": 4,
    "Ts": 4,
    "linked": 4,
    "\u0120Else": 4,
    "erg": 4,
    "\u0120mistakenly": 4,
    "emption": 4,
    "\u0120retrieved": 4,
    "\u0120DOWN": 4,
    "lessly": 4,
    "ili": 4,
    "\u0120Tr": 4,
    "\u0120FULL": 4,
    "\u0120permanent": 4,
    "\u0120affecting": 4,
    "\u0120merging": 4,
    "abin": 4,
    "inkle": 4,
    "ele": 4,
    "___": 4,
    "winner": 4,
    "GREEN": 4,
    "\u0120fuse": 4,
    "\u0120actu": 4,
    "efficient": 4,
    "\u0120GM": 4,
    "recomm": 4,
    "umes": 4,
    "\u0120CST": 4,
    "\u0120stops": 4,
    "\u0120physically": 4,
    "door": 4,
    "NOTE": 4,
    "\u0120nested": 4,
    "\u0120ARC": 4,
    "\u0120lanes": 4,
    "\u0120Construct": 4,
    "\u0120especially": 4,
    "142": 4,
    "562": 4,
    "warm": 4,
    "\u0120Layer": 4,
    "\u0120sharp": 4,
    "quiet": 4,
    "ith": 4,
    "\u0120charge": 4,
    "\u0120prob": 4,
    "kie": 4,
    "sil": 4,
    "AFP": 4,
    "\u0120Errors": 4,
    "ifications": 4,
    "Micro": 4,
    "cyl": 4,
    "Starting": 4,
    "\u0120catalog": 4,
    "\u0120rang": 4,
    "\u0120Root": 4,
    "\u0120subtract": 4,
    "\u0120overflowing": 4,
    "\u0120transfers": 4,
    "Stand": 4,
    "Success": 4,
    "\u0120FF": 4,
    "\u0120Slot": 4,
    "\u0120During": 4,
    "\u0120Android": 4,
    "\u0120diss": 4,
    "\u0120Slave": 4,
    "\u0120freezing": 4,
    "\u0120Cle": 4,
    "mag": 4,
    "\u0120PRESS": 4,
    "\u0120mag": 4,
    "\u0120meaningful": 4,
    "\u0120accum": 4,
    "Ns": 4,
    "\u0120route": 4,
    "\u0120:-)": 4,
    "\u0120replaced": 4,
    "stra": 4,
    "016": 4,
    "\u0120timeline": 4,
    "software": 4,
    "\u0120VER": 4,
    "\u0120asking": 4,
    "\u0120Unfortunately": 4,
    "ername": 4,
    "Export": 4,
    "imp": 4,
    "\u0120imp": 4,
    "IGHTS": 4,
    "\u0120snapshot": 4,
    "501": 4,
    "stuff": 4,
    "Example": 4,
    "\u0120Or": 4,
    "\u0120fine": 4,
    "oute": 4,
    "WATCH": 4,
    "\u0120Mount": 4,
    "eping": 4,
    "ves": 4,
    "strip": 4,
    "DJ": 4,
    "los": 4,
    "bec": 4,
    "\u0120PCR": 4,
    "ZI": 4,
    "ophys": 4,
    "\u0120relocate": 4,
    "\u0120clip": 4,
    "259": 4,
    "ulf": 4,
    "pleting": 4,
    "\u0120120": 4,
    "\u0120CALL": 4,
    "\u0120OVER": 4,
    "sq": 4,
    "\u0120amb": 4,
    "wi": 4,
    "\u0120sects": 4,
    "\u0120contained": 4,
    "ogue": 4,
    "ped": 4,
    "002": 4,
    "Br": 4,
    "780": 4,
    "\u0120twin": 4,
    "\u0120dividend": 4,
    "qi": 4,
    "\u0120Vendor": 4,
    "\u0120revisions": 4,
    "\u0120unstable": 4,
    "\u0120ATK": 4,
    "\u0120accessing": 4,
    "____": 4,
    "ostic": 4,
    "\u0120Pe": 4,
    "\u0120harm": 4,
    "MENTS": 4,
    "\u0120stamp": 4,
    "book": 4,
    "Date": 4,
    "\u0120identification": 4,
    "\u0120scr": 4,
    "\u0120Illegal": 4,
    "Disc": 4,
    "\u0120selection": 4,
    "\u0120Common": 4,
    "\u0120ARM": 4,
    "fact": 4,
    "Tw": 4,
    "\u0120arrive": 4,
    "ODY": 4,
    "\u0120Replay": 4,
    "\u0120strange": 4,
    "\u0120Advance": 4,
    "\u0120focus": 4,
    "ranch": 4,
    "eas": 4,
    "\u0120thru": 4,
    "pole": 4,
    "stem": 4,
    "ause": 4,
    "\u0120indicating": 4,
    "\u0120dots": 4,
    "['": 4,
    "Topic": 4,
    "YA": 4,
    "alk": 4,
    "\u0120SUB": 4,
    "FH": 4,
    "\u0120loss": 4,
    "ival": 4,
    "nect": 4,
    "\u0120Eventually": 4,
    "\u0120mat": 4,
    "\u0120extr": 4,
    "Master": 4,
    "\u0120located": 4,
    "Names": 4,
    "itors": 4,
    "Tes": 4,
    "elines": 4,
    "Patch": 4,
    "Pause": 4,
    "Flo": 4,
    "Scene": 4,
    "Are": 4,
    "Component": 4,
    "Points": 4,
    "ighth": 4,
    "Dash": 4,
    "Shar": 4,
    "Aff": 4,
    "JC": 4,
    "\u0120Structure": 4,
    "\u0120FIR": 4,
    "\u0120Owner": 4,
    "\u0120Provision": 4,
    "\u0120preceding": 4,
    "It": 4,
    "\u0120unconditional": 4,
    "\u0120DSM": 4,
    "Pri": 4,
    "Ev": 4,
    "generated": 4,
    "\u0120commons": 4,
    "\u013b": 4,
    "\u0120DOC": 4,
    "quote": 4,
    "decl": 4,
    "danger": 4,
    "alist": 4,
    "\u0120curb": 4,
    "\u0120bot": 4,
    "ake": 4,
    "\u0120linking": 4,
    "\u0120156": 4,
    "cpp": 4,
    "\u0120clips": 4,
    "Pad": 4,
    "ructure": 4,
    "\u0120terminal": 4,
    "NN": 4,
    "\u0120knowledge": 4,
    "\u0120infer": 4,
    "echo": 4,
    "definition": 4,
    "Mal": 4,
    "\u0120Text": 4,
    "\u0120relocated": 4,
    "throw": 4,
    "\u0120preference": 4,
    "\u0120REM": 4,
    "\u0120Console": 4,
    "umn": 4,
    "\u0120Notification": 4,
    "worked": 4,
    "ene": 4,
    "tenance": 4,
    "\u0120unlimited": 4,
    "\u0120relaxing": 4,
    "lasses": 4,
    "iction": 4,
    "\u0120prediction": 4,
    "\u0120BAD": 4,
    "\u0120intuitive": 4,
    "Elf": 4,
    "\u0120seem": 4,
    "rub": 4,
    "Has": 4,
    "\u0120fa": 4,
    "rax": 4,
    "\u0120RM": 4,
    "\u0120Imm": 4,
    "acer": 4,
    "\u0120Access": 4,
    "creation": 4,
    "uri": 4,
    "\u0120299": 4,
    "density": 4,
    "depend": 4,
    "acons": 4,
    "\u0120mins": 4,
    "\u0120Session": 4,
    "\u0120mobility": 4,
    "worth": 4,
    "anic": 4,
    "itte": 4,
    "ppo": 4,
    "\u0120lov": 4,
    "apa": 4,
    "/\"": 4,
    "Pr": 4,
    "\u0120aff": 4,
    "\u0120distributor": 4,
    "pkg": 4,
    "Av": 4,
    "atching": 4,
    "\u0120bias": 4,
    "\u0120Arg": 4,
    "\u0120frog": 4,
    "\u0120pu": 4,
    "Volume": 4,
    "Lou": 4,
    "\u0120induce": 4,
    "\u0120raising": 4,
    "\u0120severity": 4,
    "301": 3,
    "111": 3,
    "quant": 3,
    "izontal": 3,
    "\u0120horizontal": 3,
    "KT": 3,
    "\u0120iso": 3,
    "\u0120exceeding": 3,
    "IED": 3,
    "\u0120Round": 3,
    "\u0120Supported": 3,
    "irt": 3,
    "\u0120guarantees": 3,
    "Either": 3,
    "\u0120imports": 3,
    "\u0120Increase": 3,
    "Snap": 3,
    "Shot": 3,
    "\u0120logging": 3,
    "\u0120Wi": 3,
    "\u0120Ch": 3,
    "\u0120dB": 3,
    "Results": 3,
    "\u0120shall": 3,
    "\u0120intra": 3,
    "Home": 3,
    "BTC": 3,
    "\u0120compensate": 3,
    "\u0120rounding": 3,
    "....": 3,
    "\u0120Auth": 3,
    "\u0120Conc": 3,
    "\u0120introduced": 3,
    "\u0120TD": 3,
    "\u0120GO": 3,
    "\u0120resolve": 3,
    "\u0120Warning": 3,
    "Trigger": 3,
    "\u0120interest": 3,
    "\u0120ha": 3,
    "\u0120cancelled": 3,
    "Deep": 3,
    "Clean": 3,
    "\u0120Service": 3,
    "\u0120exchange": 3,
    "\u0120integrated": 3,
    "asure": 3,
    "\u0120STAND": 3,
    "\u0120excessive": 3,
    "\u0120estimate": 3,
    "\u0120heads": 3,
    "\u0120journal": 3,
    "\u0120tested": 3,
    "oops": 3,
    "hers": 3,
    "\u0120Treat": 3,
    "\u0120cycling": 3,
    "\u0120recycled": 3,
    "\u0120Waiting": 3,
    "\u0120interpreted": 3,
    "\u0120reaches": 3,
    "\u0120circular": 3,
    "\u0120distribution": 3,
    "\u0120heavy": 3,
    "\u0120keeping": 3,
    "\u0120comple": 3,
    "activation": 3,
    "\u0120shape": 3,
    "\u0120Better": 3,
    "\u0120heavily": 3,
    "\u0120thr": 3,
    "ashing": 3,
    "\u0120recent": 3,
    "\u0120adjustments": 3,
    "\u0120towards": 3,
    "percent": 3,
    "\u0120Consider": 3,
    "\u0120Direct": 3,
    "\u0120decreasing": 3,
    "\u0120hierarchy": 3,
    "\u0120storing": 3,
    "\u0120hiber": 3,
    "\u0120awake": 3,
    "\u0120responsible": 3,
    "\u0120cleaning": 3,
    "\u0120Thro": 3,
    "\u0120Although": 3,
    "\u0120Unlike": 3,
    "ively": 3,
    "\u0120Trying": 3,
    "\u0120hurt": 3,
    "\u0120whichever": 3,
    "\u0120suspending": 3,
    "\u0120estimated": 3,
    "\u0120breached": 3,
    "\").": 3,
    "\u0120protects": 3,
    "\u0120piece": 3,
    "244": 3,
    "227": 3,
    "1080": 3,
    "477": 3,
    "481": 3,
    "475": 3,
    "489": 3,
    "473": 3,
    "130": 3,
    "486": 3,
    "451": 3,
    "408": 3,
    "461": 3,
    "576": 3,
    "457": 3,
    "utters": 3,
    "tle": 3,
    "\u0120===": 3,
    "\u0120LD": 3,
    "\u0120383": 3,
    "\u0120226": 3,
    "\u0120],": 3,
    "\u0120Storage": 3,
    "\u0120shows": 3,
    "\u0120Additional": 3,
    "\u0120ONLY": 3,
    "\u0120converting": 3,
    "\u0120WiFi": 3,
    "uting": 3,
    "Water": 3,
    "\u0120PER": 3,
    "igation": 3,
    "\u0120RR": 3,
    "Pack": 3,
    "\u0120revis": 3,
    "mean": 3,
    "\u0120unlike": 3,
    "ENTION": 3,
    "\u0120suite": 3,
    "\u0120Unic": 3,
    "\u0120Index": 3,
    "\u0120Added": 3,
    "Action": 3,
    "\u0120swapped": 3,
    "\u0120Following": 3,
    "lied": 3,
    "----------------------------------------------------------------": 3,
    "\u0120300": 3,
    "\u0120----------------------------------------------------------------": 3,
    "Repeat": 3,
    "\u0120minutes": 3,
    "\u0120expose": 3,
    "\u0120Private": 3,
    "uing": 3,
    "Go": 3,
    "\u0120powers": 3,
    "affected": 3,
    "\u0120assure": 3,
    "\u0120boat": 3,
    "\u0120afterwards": 3,
    "\u0120conservative": 3,
    "\u0120ensured": 3,
    "\u0120incomp": 3,
    "\u0120governors": 3,
    "\u0120dire": 3,
    "\u0120interpol": 3,
    "pressed": 3,
    "\u0120MR": 3,
    "confirmed": 3,
    "354": 3,
    "804": 3,
    "URES": 3,
    "\u0120algorithms": 3,
    "\u0120Pres": 3,
    "\u0120Stevens": 3,
    "\u0120passive": 3,
    "\u0120Potential": 3,
    "\u0120Race": 3,
    "\u0120breaker": 3,
    "\u0120wont": 3,
    "\u0120fitting": 3,
    "\u0120emptied": 3,
    "\u0120bid": 3,
    "\u0120Optim": 3,
    "\u0120Safe": 3,
    "itted": 3,
    "\u0120fat": 3,
    "\u0120flight": 3,
    "\u0120cycles": 3,
    "\u0120Application": 3,
    "\u0120blame": 3,
    "\u0120specs": 3,
    "\u0120Probably": 3,
    "lets": 3,
    "\u0120weaker": 3,
    "\u0120remembered": 3,
    "\u0120clears": 3,
    "ILS": 3,
    "uke": 3,
    "\u0120ET": 3,
    "kr": 3,
    "288": 3,
    "\u0120104": 3,
    "\u0120Jack": 3,
    "\u0120jack": 3,
    "Button": 3,
    "\u0120130": 3,
    "\u0120Non": 3,
    "\u0120enhanced": 3,
    "\u0120signalling": 3,
    "\u0120Kill": 3,
    "\u0120pig": 3,
    "\u0120Contin": 3,
    "\u0120Capture": 3,
    "\u0120compatible": 3,
    "Cop": 3,
    "\u0120falling": 3,
    "\u0120came": 3,
    "\u0120Cons": 3,
    "\u0120requirement": 3,
    "\u0120Moving": 3,
    "\u0120rejected": 3,
    "bred": 3,
    "\u0120reflects": 3,
    "assembled": 3,
    "\u0120tiny": 3,
    "\u0120delays": 3,
    "\u0120receives": 3,
    "\u0120Fortunately": 3,
    "\u0120Expect": 3,
    "\u0120Rew": 3,
    "\u0120reliable": 3,
    "\u0120Basic": 3,
    "\u0120continuation": 3,
    "777": 3,
    "598": 3,
    "351": 3,
    "ulo": 3,
    "\u0120inject": 3,
    "\u0120leaks": 3,
    "\u0120functionality": 3,
    "\u0120inform": 3,
    "oke": 3,
    "\u0120lifetime": 3,
    "655": 3,
    "tain": 3,
    "\u0120integrity": 3,
    "\u0120corner": 3,
    "\u0120feed": 3,
    "column": 3,
    "bold": 3,
    "accessible": 3,
    "Builder": 3,
    "\u0120children": 3,
    "\u0120medium": 3,
    "\u0120computed": 3,
    "\u0120chosen": 3,
    "\u0120platforms": 3,
    "imer": 3,
    "oche": 3,
    "mad": 3,
    "sound": 3,
    "cards": 3,
    "\u0120separated": 3,
    "\u0120HAS": 3,
    "102": 3,
    "solid": 3,
    ")--": 3,
    "\u0120integers": 3,
    "\u0120Sa": 3,
    "Items": 3,
    "\u012055": 3,
    "ribe": 3,
    "month": 3,
    "minute": 3,
    "\u0120FIL": 3,
    "\u0120NAME": 3,
    "\u0120letter": 3,
    "\u0120slash": 3,
    "Filename": 3,
    "dos": 3,
    "\u0120issuer": 3,
    "\u0120summary": 3,
    "\u0120FD": 3,
    "\u0120UA": 3,
    "\u0120optimized": 3,
    "\u0120public": 3,
    "\u0120situations": 3,
    "\u0120loader": 3,
    "\u0120Creating": 3,
    "\u0120identity": 3,
    "\u0120transforms": 3,
    "ples": 3,
    "\u0120Apple": 3,
    "\u0120mainly": 3,
    "rac": 3,
    "\u0120...\"": 3,
    "Post": 3,
    "ajor": 3,
    "\u0120synthes": 3,
    "\u0120palette": 3,
    "rap": 3,
    "\u0120Pa": 3,
    "\u0120fairly": 3,
    "\u0120weighted": 3,
    "\u0120answer": 3,
    "iller": 3,
    "\u0120--------------------": 3,
    "\u01202008": 3,
    "\u0120figured": 3,
    "\u0120equals": 3,
    "\u0120pip": 3,
    "\u0120luck": 3,
    "\u0120pump": 3,
    "stall": 3,
    "\u0120cancellation": 3,
    "uling": 3,
    "ipping": 3,
    "\u0120indeed": 3,
    "enced": 3,
    "\u0120configurations": 3,
    "\u0120harmless": 3,
    "124": 3,
    "icker": 3,
    "\u0120overlay": 3,
    "\u0120recomp": 3,
    "\u0120333": 3,
    "\u0120133": 3,
    "333": 3,
    "190": 3,
    "855": 3,
    "uce": 3,
    "\u0120thousand": 3,
    "desktop": 3,
    "\u0120Primary": 3,
    "\u0120ascending": 3,
    "amping": 3,
    "forcing": 3,
    "ithering": 3,
    "\u0120stays": 3,
    "\u0120Returns": 3,
    "\u0120appropriately": 3,
    "\u0120directed": 3,
    "\u0120Conn": 3,
    "\u012084": 3,
    "urations": 3,
    "\u0120borrow": 3,
    "\u0120respectively": 3,
    "uck": 3,
    "\u0120Program": 3,
    "007": 3,
    "\u0120adjustment": 3,
    "\u0120IA": 3,
    "\u0120800": 3,
    "\u0120Required": 3,
    "\u0120SV": 3,
    "2004": 3,
    "\u0120Based": 3,
    "\u0120implements": 3,
    "Issue": 3,
    "\u0120broad": 3,
    "gar": 3,
    "\u0120sequ": 3,
    "\u0120repeated": 3,
    "\u0120Which": 3,
    "tile": 3,
    "\u0120STR": 3,
    "vir": 3,
    "\u0120contended": 3,
    "illing": 3,
    "\u0120keeps": 3,
    "\u0120Sh": 3,
    "\u0120helpers": 3,
    "\u0120Usually": 3,
    "\u0120manip": 3,
    "\u0120partitions": 3,
    "\u0120remains": 3,
    "\u0120forks": 3,
    "\u0120beforehand": 3,
    "reach": 3,
    "\u0120ancestors": 3,
    "\u0120globally": 3,
    "\u0120Report": 3,
    "\u0120ownership": 3,
    "\u0120ba": 3,
    "\u0120Really": 3,
    "Jump": 3,
    "080": 3,
    "Ability": 3,
    "\u0120gig": 3,
    "abit": 3,
    "\u0120anyone": 3,
    "\u0120documented": 3,
    "\u0120LEDs": 3,
    "\u0120Aut": 3,
    "since": 3,
    "\u0120Putting": 3,
    "\u0120Code": 3,
    "\u0120Overs": 3,
    "\u0120Ref": 3,
    "\u0120Ctrl": 3,
    "\u0120faults": 3,
    "\u0120incre": 3,
    "\u0120Uni": 3,
    "330": 3,
    "\u0120Symbol": 3,
    "060": 3,
    "\u0120computer": 3,
    "ards": 3,
    "\u0120Warn": 3,
    "\u0120CB": 3,
    "\u0120readable": 3,
    "\u0120controlled": 3,
    "\u0120Writing": 3,
    "\u0120weak": 3,
    "\u0120resistor": 3,
    "\u01201800": 3,
    "aking": 3,
    "170": 3,
    "\u0120Taking": 3,
    "OLOGY": 3,
    "\u0120134": 3,
    "\u0120BRE": 3,
    "\u0120coordinate": 3,
    "\u0120separately": 3,
    "\u0120differently": 3,
    "\u0120Windows": 3,
    "ising": 3,
    "\u0120knock": 3,
    "\u0120Query": 3,
    "\u0120approach": 3,
    "ead": 3,
    "had": 3,
    "\u0120Sometimes": 3,
    "\u0120refill": 3,
    "controlled": 3,
    "\u0120knowing": 3,
    "\u0120bridges": 3,
    "ppe": 3,
    "ADS": 3,
    "\u0120Serial": 3,
    "\u0120iss": 3,
    "\u0120reject": 3,
    "stre": 3,
    "External": 3,
    "\u0120Comb": 3,
    "\u0120Com": 3,
    "\u0120loads": 3,
    "\u0120hopefully": 3,
    "\u0120directories": 3,
    "\u0120Simply": 3,
    "\u0120breaks": 3,
    "\u012006": 3,
    "456": 3,
    "\u0120mun": 3,
    "\u0120253": 3,
    "Stack": 3,
    "otor": 3,
    "\u01203000": 3,
    "ears": 3,
    "\u0120accessory": 3,
    "200000": 3,
    "ophone": 3,
    "aze": 3,
    "`": 3,
    "Files": 3,
    "KN": 3,
    "\u0120Until": 3,
    "\u0120optimize": 3,
    "\u0120routines": 3,
    "\u0120needing": 3,
    "mounted": 3,
    "\u0120decided": 3,
    "\u0120straight": 3,
    "\u0120avoiding": 3,
    "\u0120applied": 3,
    "\u0120fold": 3,
    "\u0120strictly": 3,
    "\u0120MF": 3,
    "killed": 3,
    "\u0120avg": 3,
    "\u0120While": 3,
    "\u0120Blank": 3,
    "ened": 3,
    "\u0120steady": 3,
    "\u0120suppressed": 3,
    "\u0120trade": 3,
    "\u0120downgrade": 3,
    "\u0120ran": 3,
    "\u0120losing": 3,
    "\u0120Requ": 3,
    "cial": 3,
    "\u0120architectures": 3,
    "hen": 3,
    "\u0120discarded": 3,
    "\u0120Hold": 3,
    "\u0120positives": 3,
    "onymous": 3,
    "ushes": 3,
    "mortem": 3,
    "WAY": 3,
    "\u0120audit": 3,
    "\u0120authority": 3,
    "\u0120vice": 3,
    "\u0120versa": 3,
    "\u0120certification": 3,
    "\u0120nest": 3,
    "\u0120Generic": 3,
    "\u0120ASAP": 3,
    "\u0120slaves": 3,
    "\u0120Normally": 3,
    "leted": 3,
    "Iterator": 3,
    "Pan": 3,
    "\u0120filtered": 3,
    "\u0120Reply": 3,
    "rors": 3,
    "\u0120bas": 3,
    "\u0120ski": 3,
    "\u0120obvious": 3,
    "zn": 3,
    "Rank": 3,
    "\u0120VOL": 3,
    "avoid": 3,
    "\u0120includes": 3,
    "Minor": 3,
    "rary": 3,
    "\u0120Released": 3,
    "\u0120([": 3,
    "\u0120AES": 3,
    "\u0120allowable": 3,
    "\u0120gran": 3,
    "\u0120press": 3,
    "\u0120traditionally": 3,
    "\u0120preempt": 3,
    "\u0120whatever": 3,
    "\u0120cleans": 3,
    ">:": 3,
    "\u0120overload": 3,
    "\u0120leaves": 3,
    "\u0120fire": 3,
    "--------------------": 3,
    "\u0120aliases": 3,
    "\u0120roll": 3,
    "\u0120Most": 3,
    "\u0120unre": 3,
    "\u0120symm": 3,
    "\u0120volt": 3,
    "\u0120didnt": 3,
    "\u0120IGN": 3,
    "bles": 3,
    "Pages": 3,
    "\u0120Incre": 3,
    "Now": 3,
    "\u0120Enabled": 3,
    "\u0120communication": 3,
    "lect": 3,
    "\u0120Reserve": 3,
    "\u0120chains": 3,
    "Arch": 3,
    "aver": 3,
    "\u0120Again": 3,
    "\u0120Deal": 3,
    "\u0120alarm": 3,
    "\u0120arc": 3,
    "zag": 3,
    "\u0120amplitude": 3,
    "arrow": 3,
    "\u0120workspace": 3,
    "\u0120DES": 3,
    "\u0120Odd": 3,
    "\u0120undo": 3,
    "\u012052": 3,
    "mand": 3,
    "atory": 3,
[...]
